node {
  name: "global_step/Initializer/zeros"
  op: "Const"
  attr {
    key: "_class"
    value {
      list {
        s: "loc:@global_step"
      }
    }
  }
  attr {
    key: "_output_shapes"
    value {
      list {
        shape {
        }
      }
    }
  }
  attr {
    key: "dtype"
    value {
      type: DT_INT64
    }
  }
  attr {
    key: "value"
    value {
      tensor {
        dtype: DT_INT64
        tensor_shape {
        }
        int64_val: 0
      }
    }
  }
}
node {
  name: "global_step"
  op: "VariableV2"
  attr {
    key: "_class"
    value {
      list {
        s: "loc:@global_step"
      }
    }
  }
  attr {
    key: "_output_shapes"
    value {
      list {
        shape {
        }
      }
    }
  }
  attr {
    key: "container"
    value {
      s: ""
    }
  }
  attr {
    key: "dtype"
    value {
      type: DT_INT64
    }
  }
  attr {
    key: "shape"
    value {
      shape {
      }
    }
  }
  attr {
    key: "shared_name"
    value {
      s: ""
    }
  }
}
node {
  name: "global_step/Assign"
  op: "Assign"
  input: "global_step"
  input: "global_step/Initializer/zeros"
  attr {
    key: "T"
    value {
      type: DT_INT64
    }
  }
  attr {
    key: "_class"
    value {
      list {
        s: "loc:@global_step"
      }
    }
  }
  attr {
    key: "_output_shapes"
    value {
      list {
        shape {
        }
      }
    }
  }
  attr {
    key: "use_locking"
    value {
      b: true
    }
  }
  attr {
    key: "validate_shape"
    value {
      b: true
    }
  }
}
node {
  name: "global_step/read"
  op: "Identity"
  input: "global_step"
  attr {
    key: "T"
    value {
      type: DT_INT64
    }
  }
  attr {
    key: "_class"
    value {
      list {
        s: "loc:@global_step"
      }
    }
  }
  attr {
    key: "_output_shapes"
    value {
      list {
        shape {
        }
      }
    }
  }
}
node {
  name: "global_step/IsVariableInitialized"
  op: "IsVariableInitialized"
  input: "global_step"
  attr {
    key: "_class"
    value {
      list {
        s: "loc:@global_step"
      }
    }
  }
  attr {
    key: "_output_shapes"
    value {
      list {
        shape {
        }
      }
    }
  }
  attr {
    key: "dtype"
    value {
      type: DT_INT64
    }
  }
}
node {
  name: "global_step/cond/Switch"
  op: "Switch"
  input: "global_step/IsVariableInitialized"
  input: "global_step/IsVariableInitialized"
  attr {
    key: "T"
    value {
      type: DT_BOOL
    }
  }
  attr {
    key: "_output_shapes"
    value {
      list {
        shape {
        }
        shape {
        }
      }
    }
  }
}
node {
  name: "global_step/cond/switch_t"
  op: "Identity"
  input: "global_step/cond/Switch:1"
  attr {
    key: "T"
    value {
      type: DT_BOOL
    }
  }
  attr {
    key: "_output_shapes"
    value {
      list {
        shape {
        }
      }
    }
  }
}
node {
  name: "global_step/cond/switch_f"
  op: "Identity"
  input: "global_step/cond/Switch"
  attr {
    key: "T"
    value {
      type: DT_BOOL
    }
  }
  attr {
    key: "_output_shapes"
    value {
      list {
        shape {
        }
      }
    }
  }
}
node {
  name: "global_step/cond/pred_id"
  op: "Identity"
  input: "global_step/IsVariableInitialized"
  attr {
    key: "T"
    value {
      type: DT_BOOL
    }
  }
  attr {
    key: "_output_shapes"
    value {
      list {
        shape {
        }
      }
    }
  }
}
node {
  name: "global_step/cond/read"
  op: "Identity"
  input: "global_step/cond/read/Switch:1"
  attr {
    key: "T"
    value {
      type: DT_INT64
    }
  }
  attr {
    key: "_output_shapes"
    value {
      list {
        shape {
        }
      }
    }
  }
}
node {
  name: "global_step/cond/read/Switch"
  op: "RefSwitch"
  input: "global_step"
  input: "global_step/cond/pred_id"
  attr {
    key: "T"
    value {
      type: DT_INT64
    }
  }
  attr {
    key: "_class"
    value {
      list {
        s: "loc:@global_step"
      }
    }
  }
  attr {
    key: "_output_shapes"
    value {
      list {
        shape {
        }
        shape {
        }
      }
    }
  }
}
node {
  name: "global_step/cond/Switch_1"
  op: "Switch"
  input: "global_step/Initializer/zeros"
  input: "global_step/cond/pred_id"
  attr {
    key: "T"
    value {
      type: DT_INT64
    }
  }
  attr {
    key: "_class"
    value {
      list {
        s: "loc:@global_step"
      }
    }
  }
  attr {
    key: "_output_shapes"
    value {
      list {
        shape {
        }
        shape {
        }
      }
    }
  }
}
node {
  name: "global_step/cond/Merge"
  op: "Merge"
  input: "global_step/cond/Switch_1"
  input: "global_step/cond/read"
  attr {
    key: "N"
    value {
      i: 2
    }
  }
  attr {
    key: "T"
    value {
      type: DT_INT64
    }
  }
  attr {
    key: "_output_shapes"
    value {
      list {
        shape {
        }
        shape {
        }
      }
    }
  }
}
node {
  name: "global_step/add/y"
  op: "Const"
  attr {
    key: "_output_shapes"
    value {
      list {
        shape {
        }
      }
    }
  }
  attr {
    key: "dtype"
    value {
      type: DT_INT64
    }
  }
  attr {
    key: "value"
    value {
      tensor {
        dtype: DT_INT64
        tensor_shape {
        }
        int64_val: 0
      }
    }
  }
}
node {
  name: "global_step/add"
  op: "Add"
  input: "global_step/cond/Merge"
  input: "global_step/add/y"
  attr {
    key: "T"
    value {
      type: DT_INT64
    }
  }
  attr {
    key: "_output_shapes"
    value {
      list {
        shape {
        }
      }
    }
  }
}
node {
  name: "tensors/component_0"
  op: "Const"
  device: "/device:CPU:0"
  attr {
    key: "_output_shapes"
    value {
      list {
        shape {
          dim {
            size: 284
          }
        }
      }
    }
  }
  attr {
    key: "dtype"
    value {
      type: DT_DOUBLE
    }
  }
  attr {
    key: "value"
    value {
      tensor {
        dtype: DT_DOUBLE
        tensor_shape {
          dim {
            size: 284
          }
        }
        tensor_content: "\244p=\n\327\243,@\024\256G\341z\024/@q=\n\327\243p\005@\217\302\365(\\\217\020@H\341z\024\256G\r\300\205\353Q\270\036\205\032@\256G\341z\024\256\024@fffff\036a@\000\000\000\000\340\016\303@333333\r@\327\243p=\nW;@\000\000\000\000\000\200%@\327\243p=\n\327\377\277\n\327\243p=\212/@{\024\256G\341:1@R\270\036\205\353Q\310\277\000\000\000\000\000\000\320\277\232\231\231\231\231\231\271\277\341z\024\256G\341\312?\024\256G\341z\2246@\024\256G\341zT5@\327\243p=\ngQ@\n\327\243p=\n*@\244p=\n\327\243*@\232\231\231\231\231\331;@fffff&0@\341z\024\256G\341\312?\256G\341z\024nL@q=\n\327\243\360*@R\270\036\205\353\021I@\303\365(\\\217\302\'@333333\'@\244p=\n\327\243\016@333333\r@=\n\327\243pmP@\341z\024\256Ga @3333335@\315\314\314\314\314\314\344?\327\243p=\n\227;@\232\231\231\231\231yH@\256G\341z\024\256\327\277H\341z\024\256G\022@ffffff\023@\\\217\302\365(\\\363?\244p=\n\327\2435@\217\302\365(\\\217\342?\\\217\302\365(\234G@{\024\256G\341z\014\300\244p=\n\327\2435@H\341z\024\256\2075@\024\256G\341z\024,@R\270\036\205\353\321\"@\024\256G\341z\024\014@\024\256G\341ztV@\315\314\314\314\314\314\034@\315\314\314\314\314\314\022@\327\243p=\n\327\367?\024\256G\341z\024\346\277=\n\327\243p=#@\232\231\231\231\231Y9@\205\353Q\270\036\265V@{\024\256G\341\372\"@\366(\\\217\302\365\023\300\315\314\314\314\314L(@\270\036\205\353Qhd@\\\217\302\365(\\-@\205\353Q\270\036\205\'@\\\217\302\365(\\\005\300\244p=\n\327\243\020\300fffff\246>@\037\205\353Q\270\0361@=\n\327\243p\275-@\037\205\353Q\270\036\017@\315\314\314\314\314\354D@\256G\341z\024\256\036@)\\\217\302\365Dp@\303\365(\\\217vq@\\\217\302\365(\\\023@\217\302\365(\\\217#@fffff\346\"@R\270\036\205\353\321 @H\341z\024\256G\r@\217\302\365(\\\217\366?)\\\217\302\365(\016\300)\\\217\302\365(\026@33333\223D@q=\n\327\243p\001\300{\024\256G\341z\224\277fffff\306A@\n\327\243p=\312O@\354Q\270\036\205k @\354Q\270\036\205k-@\n\327\243p=\n\024@q=\n\327\2430F@\205\353Q\270\036\205\r@\000\000\000\000\000\000\022@{\024\256G\341z\034@\256G\341z\024n2@\024\256G\341z\224)@\366(\\\217\302\365\036@\244p=\n\327\243\300\277=\n\327\243p=\033@H\341z\024\256G+@H\341z\024\256G\032@R\270\036\205\353qF@{\024\256G\341z2@fffff\306A@\256G\341z\024\2569@\327\243p=\nW\"@\n\327\243p=\212\'@R\270\036\205\353Q\350\277\270\036\205\353Q\270\356\277\303\365(\\\217\302\361\277333333!@\n\327\243p=\312E@=\n\327\243p=\031@H\341z\024\256G%@R\270\036\205\353\231m@{\024\256G\341\372+@\205\353Q\270\036\205\005@\037\205\353Q\270\036\026@\037\205\353Q\270\0361@\270\036\205\353Q\270\276\277\315\314\314\314\314\314\334?\366(\\\217\30253@{\024\256G\341z\244\277\232\231\231\231\231\231\371\277\217\302\365(\\\217\362\277R\270\036\205\353Q\034@\000\000\000\000\000\000\002\300\232\231\231\231\231\0310@\244p=\n\327\3431@33333\263&@\315\314\314\314\314\314\002\300\000\000\000\000\000\000\n@\256G\341z\0246\207@\037\205\353Q\270\036\025@\205\353Q\270\036\205\034@\n\327\243p=\n\347?{\024\256G\341\372#@\327\243p=\n\327)@\244p=\n\327*\246@\217\302\365(\\\217\322\277H\341z\024\256G\007\300\270\036\205\353Q\270\366\277{\024\256G\341\302\204@\232\231\231\231\231\231\020@\217\302\365(\\\217\006\300333333\022@\217\302\365(\\\217#@\n\327\243p=\212)@R\270\036\205\353\0211@{\024\256G\341z\030@fffff\346-@{\024\256G\341z\344?\024\256G\341ztV@\256G\341z\024\3561@q=\n\327\243p$@\232\231\231\231\231\031<@\256G\341z\024\256=@)\\\217\302\365(\032@\205\353Q\270\036\305C@\037\205\353Q\270\276C@\\\217\302\365(\334\"@\366(\\\217\302\365\036@H\341z\024\256G\351?q=\n\327\243p\003@ffffff\022@\315\314\314\314\314\314\025@\327\243p=\n\327\030@\\\217\302\365(\\6@\\\217\302\365(\2341@\354Q\270\036\205\243n@\n\327\243p}h\264@\205\353Q\270\036\205\027@=\n\327\243p\t\260@\217\302\365(\\\217\037@{\024\256G\341z\224\277\037\205\353Q\270\036\020\300\232\231\231\231\231YB@\327\243p=\n\227;@\217\302\365(\\\217\026@\270\036\205\353Q8+@)\\\217\302\365h8@\\\217\302\365(\\-@\303\365(\\\217\302\'@\315\314\314\314\314\354Q@\315\314\314\314\314\314\374?\303\365(\\\217\202J@3333335@33333\263!@\303\365(\\\217\302\022@\244p=\n\327\003@@)\\\217\302\365\010Q@{\024\256G\341z\324?\354Q\270\036\205\2537@\217\302\365(\\\217\322\277\\\217\302\365(\314Y@H\341z\024\256G;@33333\2630@)\\\217\302\365h2@q=\n\327\243\360$@\217\302\365(\\\017H@\024\256G\341z\224;@\217\302\365(\\\017\"@ffffff6@\\\217\302\365(\2349@{\024\256G\341z\360?\217\302\365(\\\217*@\000\000\000\000\000\000\023@\024\256G\341z\264s@q=\n\327\243p\355\277\303\365(\\\217\302(@\n\327\243p=\n\025@=\n\327\243p=#@q=\n\327\243p\020@\024\256G\341z\024\362\277\244p=\n\327\2435@)\\\217\302\365(\020\300\303\365(\\\217\302\305\27733333s;@\315\314\314\314\314\314\370?\205\353Q\270\036\205\034@\217\302\365(\\/C@\341z\024\256G\341%@\366(\\\217\302\3659@\232\231\231\231\231YB@fffff\246>@)\\\217\302\365h;@\000\000\000\000\000\304\205@)\\\217\302\365\010Y@333333:@)\\\217\302\365(\334?q=\n\327\243p\021@33333\263?@R\270\036\205\353\221D@\270\036\205\353Q88@\205\353Q\270\316\346\004A\327\243p=\n\327\353?\366(\\\217\302\365\014@\303\365(\\\217\302\"@\327\243p=\n\327\035@\024\256G\341zT:@\244p=\n\327\243\020\300\037\205\353Q\270\036 @\037\205\353Q\270\036&@\232\231\231\231\231\231\020@q=\n\327\243p\375?\366(\\\217\302\365\000\300333333\035@\037\205\353Q\270\036\"@\354Q\270\036\205o\253@)\\\217\302\365(-@\n\327\243p=\3124@{\024\256G\341\272E@\244p=\n\327# @{\024\256G\341z\010\300\244p=\n\327#-@\315\314\314\314\314\354D@\341z\024\256Ga$@q=\n\327\243p\365\277\232\231\231\231\231\231\251\277\327\243p=\nW;@\\\217\302\365(\\\033@)\\\217\302\365(\010\300ffffff\027@\256G\341z\024\256\363\277{\024\256G\341\302\204@\366(\\\217\302u:@\256G\341z\024\256\357?\315\314\314\314\314\014<@\341z\024\256Ga%@\000\000\000\000\000\3000@\024\256G\341z\024\"@\303\365(\\\217\"P@\\\217\302\365(\3343@\024\256G\341z\0247@q=\n\327\243p\036@R\270\036\205\353\321?@\303\365(\\\217\302\022@33333\263\'@\270\036\205\353Q8(@\341z\024\256G\341\312?H\341z\024\256G;@"
      }
    }
  }
}
node {
  name: "tensors/component_1"
  op: "Const"
  device: "/device:CPU:0"
  attr {
    key: "_output_shapes"
    value {
      list {
        shape {
          dim {
            size: 284
          }
        }
      }
    }
  }
  attr {
    key: "dtype"
    value {
      type: DT_DOUBLE
    }
  }
  attr {
    key: "value"
    value {
      tensor {
        dtype: DT_DOUBLE
        tensor_shape {
          dim {
            size: 284
          }
        }
        tensor_content: "q=\n\327\243p\024\300=\n\327\243p=.\300R\270\036\205\353\2213\300q=\n\327\243p1\300\037\205\353Q\270^;\300\327\243p=\n\327*\300\000\000\000\000\000\000/\300\000\000\000\000\000\000\000@\000\000\000\000\000\000\000\000R\270\036\205\353Q0\300=\n\327\243p=\033\300=\n\327\243p=\"\300\217\302\365(\\O;\300q=\n\327\243p\030\300\232\231\231\231\231\231\017\300\024\256G\341z\264@\3003333335\300fffff\2466\300\232\231\231\231\231Y0\300\217\302\365(\\\217\023\300ffffff\022\300\327\243p=\n\327+\300\000\000\000\000\000\000\014@\366(\\\217\302\365\340\277\000\000\000\000\000\000\025\300\000\000\000\000\000\000\004@\315\314\314\314\314L(\300{\024\256G\341z\014@333333\026\300\n\327\243p=\n\017@\341z\024\256G\341\014\300\037\205\353Q\270\036\027\300\217\302\365(\\\217,\300\000\000\000\000\000\000\'\300\232\231\231\231\231\231\020\300\244p=\n\327\243\"\300\n\327\243p=\n\035\300333333%\300=\n\327\243p=\"\300\341z\024\256G\341&\300\327\243p=\nW8\300\270\036\205\353Q\270/\300\327\243p=\n\327*\300\205\353Q\270\036\2053\300\024\256G\341z\024\004\300\000\000\000\000\000\0003\300\270\036\205\353Q\270\276?\256G\341z\024n;\300\024\256G\341z\024\004\300\341z\024\256G\341*\300\000\000\000\000\000\000\022\300\303\365(\\\217\302\005\300{\024\256G\341z\004\300\354Q\270\036\205\353\001\300\256G\341z\024\256\023\300\232\231\231\231\231\231\031\300\327\243p=\n\0270\300)\\\217\302\365(8\300\000\000\000\000\000\000%\300\000\000\000\000\000\000\026\300)\\\217\302\365(\020\300H\341z\024\256G*\300\024\256G\341z\264F\300\354Q\270\036\205\353#\300333333\017\300\n\327\243p=\n\026\300\000\000\000\000\000\000\033\300H\341z\024\256\'@\300\000\000\000\000\000\240E\300\217\302\365(\\\217\022@\000\000\000\000\000\000\360\277=\n\327\243p= \300\366(\\\217\302\3650\300\177j\274t\223\030\304?fffff\346\'\300\000\000\000\000\000\000\000\000\000\000\000\000\000\000\360\277\244p=\n\327#(\300\037\205\353Q\270\036\033\300\327\243p=\n\3270\300\037\205\353Q\270\036\017\300\315\314\314\314\314\314.\300ffffff\035\300\205\353Q\270\036\205;\300\217\302\365(\\\217\022\300\303\365(\\\217\302\005@\244p=\n\327\343:\300=\n\327\243p=*\300\\\217\302\365(\\\337\277\354Q\270\036\205\353!\300\000\000\000\000\000\000\000@=\n\327\243p=!\300\217\302\365(\\\217*\300)\\\217\302\365(\022\300\205\353Q\270\036\005 \300\024\256G\341z\024.\300\303\365(\\\217B(\300\232\231\231\231\231\231\020\300=\n\327\243p=\362\277\303\365(\\\217B0\300{\024\256G\341\272@\300{\024\256G\341z\364\277)\\\217\302\365\250\'\300\303\365(\\\217\302-\300\270\036\205\353Q\270\346\277\232\231\231\231\231\231\r\300\\\217\302\365(\\\337\277\315\314\314\314\314\314 \300\341z\024\256G\341#\300\000\000\000\000\000\200$\300{\024\256G\341\372-\300=\n\327\243p=>\300\256G\341z\024n9\300\315\314\314\314\314\314%\300\217\302\365(\\\217\022\300\244p=\n\327\243(\300=\n\327\243p=\032\300\000\000\000\000\000\000\024@\000\000\000\000\000\000\000\000\341z\024\256G\341 \300R\270\036\205\353Q-\300\232\231\231\231\231\231\331\277{\024\256G\341z6\300\205\353Q\270\036\2057\300\\\217\302\365(\334$\300\244p=\n\327\3430\300)\\\217\302\365\210B\300\024\256G\341zT;\300\303\365(\\\217\302\"\300\n\327\243p=\nA\300\341z\024\256G\341\021\300\303\365(\\\217\302\005@\270\036\205\353Q\270\037\300\315\314\314\314\314\314B\300\354Q\270\036\205\3531\300\000\000\000\000\000\000\000\000333333\r\300\327\243p=\nW$\300\270\036\205\353Q\2706\300{\024\256G\341z%\300\256G\341z\024.\"\300H\341z\024\256G\365\277\037\205\353Q\270^8\300\232\231\231\231\231\231>\300\232\231\231\231\231\231A\300\\\217\302\365(\\\337?H\341z\024\256\0072\300\\\217\302\365(\234:\300\000\000\000\000\000\000\024\300ffffff%\300\341z\024\256G\341\024\300\366(\\\217\302\365\037\300\232\231\231\231\231\231+\300\037\205\353Q\270\036\023\300)\\\217\302\365\3507\300\354Q\270\036\205\353\001\300\024\256G\341z\024\014\300\n\327\243p=\212$\300H\341z\024\256G\020\300\n\327\243p=\n\007\300\217\302\365(\\\217#\300\010\254\034Zd;\327\277\244p=\n\327\243\020@\341z\024\256G\341 \300)\\\217\302\365((\300)\\\217\302\365h0\300\341z\024\256G\341.\300\024\256G\341z\024,\300\037\205\353Q\270\036%\300\000\000\000\000\000\000 \300{\024\256G\341z,\300\303\365(\\\217\302\r\300\000\000\000\000\000\200!\300\000\000\000\000\000\000\000\000\303\365(\\\217B#\300H\341z\024\256G\021\300\232\231\231\231\231\031 \300\232\231\231\231\231Y7\300H\341z\024\256gE\300\244p=\n\327\243\020\300\000\000\000\000\000\000\320\277\205\353Q\270\036\205(\300\024\256G\341z\024\024\300=\n\327\243p=\014\300\n\327\243p=\n\026\300\366(\\\217\302\365\030\300\000\000\000\000\000\000\020@\315\314\314\314\314\2145\300\\\217\302\365(\\\023\300\n\327\243p=\n\035\300\341z\024\256G\341&\300\327\243p=\n\327+\300{\024\256G\341z\004\300\000\000\000\000\000\000\000\000\244p=\n\327\3438\300\000\000\000\000\000\000\030\300\\\217\302\365(\\;\300\000\000\000\000\000\000\000\000\244p=\n\327\243\004\300\205\353Q\270\036\205\026\300)\\\217\302\365(\n\300333333\034\300\341z\024\256G\341\004@\217\302\365(\\\217\030\300\270\036\205\353Q8$\300ffffff\026\300\354Q\270\036\205\353!\300\303\365(\\\217\3026\300\000\000\000\000\000\000\035\300H\341z\024\256\2070\300\354Q\270\036\205\353\001@\303\365(\\\217B<\300L7\211A`\345\350?333333*\300)\\\217\302\365\250%\300\232\231\231\231\231\2310\300{\024\256G\341z*\300\024\256G\341z\024\004\300\270\036\205\353Q\270E\300{\024\256G\341:9\300\000\000\000\000\000\000\032\300\303\365(\\\217\302-\300\315\314\314\314\314\314,\300\341z\024\256G\341\020\300\315\314\314\314\314\314 \300\000\000\000\000\000\000\020\300\244p=\n\327\243\020\300\217\302\365(\\\217\022@)\\\217\302\365(\020\300\000\000\000\000\000\000\000\000H\341z\024\256G\020\300\000\000\000\000\000\000\024\300\270\036\205\353Q\2706\300\\\217\302\365(\3342\300\000\000\000\000\000\000\n\300\320D\330\360\364J\271?\000\000\000\000\000\000 \300\000\000\000\000\000\000\000\000\232\231\231\231\231Y3\300\327\243p=\n\3272\300)\\\217\302\365(&\300ffffff\n\300333333\373\277\024\256G\341z\264E\300q=\n\327\243p\'\300\037\205\353Q\270\036\025\300H\341z\024\256\0072\300\256G\341z\024\256/\300\217\302\365(\\\017;\300R\270\036\205\353\321.\300\366(\\\217\302\365\034\300\303\365(\\\217\302\021\300\232\231\231\231\231\031\'\300\000\000\000\000\000\000\370\277)\\\217\302\365(\374?\315\314\314\314\314L!\300\354Q\270\036\205\313G\300q=\n\327\243p\023\300{\024\256G\341z\304?ffffff#\300\303\365(\\\217\"A\300R\270\036\205\353Q6\300H\341z\024\256G\023\300\354Q\270\036\205\353/\300\037\205\353Q\270\236.\300\217\302\365(\\\217$\300{\024\256G\341z*\300\004V\016-\262\235\337?\270\036\205\353Q\270\006\300\000\000\000\000\000\0003\300\000\000\000\000\000\000\004\300H\341z\024\256G%\300\315\314\314\314\314\314\020\300\303\365(\\\217\302\031\300\000\000\000\000\000\000\032\300\000\000\000\000\000\000\000\000\000\000\000\000\000\000\020\300\000\000\000\000\000@0\300\303\365(\\\217\302\022@)\\\217\302\365\250(\300)\\\217\302\365($\300q=\n\327\243\360 \300\315\314\314\314\314L(\300R\270\036\205\353Q\370\277"
      }
    }
  }
}
node {
  name: "tensors/component_2"
  op: "Const"
  device: "/device:CPU:0"
  attr {
    key: "_output_shapes"
    value {
      list {
        shape {
          dim {
            size: 284
          }
        }
      }
    }
  }
  attr {
    key: "dtype"
    value {
      type: DT_DOUBLE
    }
  }
  attr {
    key: "value"
    value {
      tensor {
        dtype: DT_DOUBLE
        tensor_shape {
          dim {
            size: 284
          }
        }
        tensor_content: "q=\n\327\243p\025@R\270\036\205\353Q\010@\232\231\231\231\231\231\031@\037\205\353Q\270\036\026@\232\231\231\231\231\231/@{\024\256G\341z\027@\341z\024\256G\341\027@\303\365(\\\217\302\325?\n\327\243p=\n\327?R\270\036\205\353Q\030@\303\365(\\\217\302\017@\354Q\270\036\205\353\022@\315\314\314\314\314\3140@H\341z\024\256G\021@ffffff\024@\232\231\231\231\231\0314@\354Q\270\036\205k\"@ffffff0@R\270\036\205\353Q!@=\n\327\243p=\023@=\n\327\243p=\021@\341z\024\256G\341\004@\232\231\231\231\231\231\017@\244p=\n\327\243\n@\232\231\231\231\231\231\017@\205\353Q\270\036\205\020@\037\205\353Q\270\0360@\024\256G\341z\024\356?\315\314\314\314\314\314\023@ffffff\356?\315\314\314\314\314\314\021@\n\327\243p=\n\025@\366(\\\217\302\365\026@\037\205\353Q\270\036\030@\037\205\353Q\270\036\007@\270\036\205\353Q\270\022@\232\231\231\231\231\231\r@\315\314\314\314\314L1@q=\n\327\243p\007@\n\327\243p=\n\t@333333,@\303\365(\\\217\302\034@\n\327\243p=\n\026@\n\327\243p=\n#@\217\302\365(\\\217\020@q=\n\327\243p\031@\037\205\353Q\270\036\007@3333330@)\\\217\302\365(\016@\205\353Q\270\036\205\t@{\024\256G\341z\023@\024\256G\341z\024\027@\244p=\n\327\243!@\232\231\231\231\231\231\001@\315\314\314\314\314\314\034@\n\327\243p=\n\036@\303\365(\\\217\302\030@\000\000\000\000\000\000,@\024\256G\341z\024\025@\n\327\243p=\n\357?\354Q\270\036\205\353\003@q=\n\327\243p\021@\315\314\314\314\314\314$@\354Q\270\036\205\353\024@\n\327\243p=\n\377?)\\\217\302\365(\n@\315\314\314\314\314\314\024@fffff\3460@333333%@{\024\256G\341z\014@\327\243p=\n\327\013@\217\302\365(\\\217\024@\327\243p=\n\327\027@\341z\024\256G\341\010@H\341z\024\256G\025@333333\367?\232\231\231\231\231\231\361?\000\000\000\000\000\000\027@=\n\327\243p=\026@H\341z\024\256G\021@\000\000\000\000\000\000\026@\303\365(\\\217\302\031@\024\256G\341z\224#@ffffff0@\341z\024\256G\341\036@q=\n\327\243p\355?\000\000\000\000\000\2000@\315\314\314\314\314\314/@{\024\256G\341z\014@\366(\\\217\302\365\006@\327\243p=\n\327\023@\341z\024\256G\341\020@\354Q\270\036\205\353\027@\205\353Q\270\036\205\t@\000\000\000\000\000\000&@\232\231\231\231\231\231\026@\024\256G\341z\024\025@{\024\256G\341z\023@\315\314\314\314\314\314\016@\232\231\231\231\231\231\024@\232\231\231\231\231\0314@\244p=\n\327\243\031@\205\353Q\270\036\205\017@{\024\256G\341z\031@\232\231\231\231\231\231\t@\232\231\231\231\231\231\021@\303\365(\\\217\302\355?)\\\217\302\365(\016@\\\217\302\365(\\\024@)\\\217\302\365(\024@\244p=\n\327\243\027@\\\217\302\365(\\)@\000\000\000\000\000\000&@\037\205\353Q\270\036\023@\303\365(\\\217\302\t@\327\243p=\n\327\024@\232\231\231\231\231\231\024@=\n\327\243p=\362?\315\314\314\314\314\314\016@\315\314\314\314\314\314\027@333333\030@\232\231\231\231\231\231\024@ffffff0@H\341z\024\256\307$@\315\314\314\314\314\314\016@\256G\341z\024.!@ffffff-@\\\217\302\365(\\\030@R\270\036\205\353Q\027@\315\314\314\314\314L @\244p=\n\327\243\023@\n\327\243p=\n\020@\354Q\270\036\205\353\023@ffffff,@R\270\036\205\353Q\030@\354Q\270\036\205\353\351?)\\\217\302\365(\036@\232\231\231\231\231\231\025@\217\302\365(\\\217\032@\037\205\353Q\270\036\022@\256G\341z\024\256\020@\000\000\000\000\000\000\350?333333,@3333330@ffffff,@\217\302\365(\\\217\352?\354Q\270\036\205\353\031@333333.@\303\365(\\\217\302\037@\n\327\243p=\n\025@\\\217\302\365(\\\024@\000\000\000\000\000\000\016@\315\314\314\314\314\314\030@\037\205\353Q\270\036\023@\\\217\302\365(\\\033@\366(\\\217\302\365\006@\354Q\270\036\205\353\024@=\n\327\243p=\024@H\341z\024\256G\017@{\024\256G\341z\022@\232\231\231\231\231\231\027@\037\205\353Q\270\036\007@q=\n\327\243p\355?\\\217\302\365(\\\026@\256G\341z\024\256\026@\024\256G\341z\024\031@\037\205\353Q\270\036\030@\244p=\n\327\243\032@\037\205\353Q\270\036\030@\315\314\314\314\314\314\026@\244p=\n\327\243\014@\256G\341z\024\256\024@\327\243p=\n\327\373?\000\000\000\000\000\000\000\000\303\365(\\\217\302\026@\037\205\353Q\270\036\361?\\\217\302\365(\\\025@\232\231\231\231\231\231\032@333333%@\000\000\000\000\000\000\n@{\024\256G\341z\014@q=\n\327\243p\030@\354Q\270\036\205\353\023@\037\205\353Q\270\036\020@\315\314\314\314\314\314\022@\232\231\231\231\231\231\024@\n\327\243p=\n\363?H\341z\024\256G\025@\256G\341z\024\256\357?\315\314\314\314\314\314\016@\303\365(\\\217\302\025@R\270\036\205\353Q\025@\341z\024\256G\341\n@\037\205\353Q\270\036\375?\315\314\314\314\314\314&@\205\353Q\270\036\205\003@\315\314\314\314\314\314$@\037\205\353Q\270\036\001@q=\n\327\243p\r@\024\256G\341z\024\022@\270\036\205\353Q\270\021@\\\217\302\365(\\\025@\341z\024\256G\341\352?\303\365(\\\217\302\017@\327\243p=\n\327\026@\354Q\270\036\205\353\r@\205\353Q\270\036\205\007@\\\217\302\365(\\\027@H\341z\024\256G\023@\327\243p=\n\327\030@\037\205\353Q\270\036\361?ffffff(@{\024\256G\341z\026@\256G\341z\024\256\025@\366(\\\217\302\365\024@)\\\217\302\365(\035@\000\000\000\000\000\000#@\217\302\365(\\\217\020@ffffff%@\341z\024\256G\341\027@\303\365(\\\217\302\017@\315\314\314\314\314\314$@{\024\256G\341z\031@\341z\024\256G\341\010@q=\n\327\243p\027@\037\205\353Q\270\036\345?q=\n\327\243p\355?H\341z\024\256G\020@\327\243p=\n\327\353?\\\217\302\365(\\\347?R\270\036\205\353Q\360?\205\353Q\270\036\205\003@333333$@ffffff\030@\244p=\n\327\243\014@\037\205\353Q\270\036\355?\244p=\n\327\243\000@\000\000\000\000\000\000\000\000ffffff*@\327\243p=\n\327\027@ffffff\025@=\n\327\243p=\032@{\024\256G\341z\016@333333%@\024\256G\341z\024\026@\327\243p=\n\327\024@\024\256G\341z\024\032@q=\n\327\243\360#@\000\000\000\000\000\2000@\\\217\302\365(\\\022@\232\231\231\231\231\231\024@\256G\341z\024\256\357?\354Q\270\036\205\353\020@\n\327\243p=\n\020@H\341z\024\256G\t@\303\365(\\\217\302\026@ffffff1@\000\000\000\000\000\000\022@\366(\\\217\302\365\n@q=\n\327\243p\024@\000\000\000\000\000\000,@ffffff0@\366(\\\217\302\365\016@333333\025@)\\\217\302\365(\030@\366(\\\217\302\365\027@\000\000\000\000\000\000#@\366(\\\217\302\365\360?R\270\036\205\353Q\016@\000\000\000\000\000\000)@\\\217\302\365(\\\020@\244p=\n\327\243\022@\024\256G\341z\024\024@{\024\256G\341z\030@=\n\327\243p=\002@\354Q\270\036\205\353\365?\303\365(\\\217\302\021@\217\302\365(\\\217\n@\217\302\365(\\\217\352?\024\256G\341z\024\026@\327\243p=\n\327\021@\244p=\n\327\243\022@ffffff0@q=\n\327\243p\020@"
      }
    }
  }
}
node {
  name: "tensors/component_3"
  op: "Const"
  device: "/device:CPU:0"
  attr {
    key: "_output_shapes"
    value {
      list {
        shape {
          dim {
            size: 284
          }
        }
      }
    }
  }
  attr {
    key: "dtype"
    value {
      type: DT_DOUBLE
    }
  }
  attr {
    key: "value"
    value {
      tensor {
        dtype: DT_DOUBLE
        tensor_shape {
          dim {
            size: 284
          }
        }
        tensor_content: "\244p=\n\327\243\374?\000\000\000\000\000\000\370?R\270\036\205\353Q\374?\303\365(\\\217\302\371?333333\363?\217\302\365(\\\217\376?\354Q\270\036\205\353\375?\024\256G\341z\024\346?\024\256G\341z\024\346?\303\365(\\\217\302\371?=\n\327\243p=\376?\303\365(\\\217\302\371?\\\217\302\365(\\\363?\366(\\\217\302\365\370?\341z\024\256G\341\376?\244p=\n\327\243\370?\341z\024\256G\341\366?R\270\036\205\353Q\364?)\\\217\302\365(\364?\244p=\n\327\243\374?\000\000\000\000\000\000\374?\303\365(\\\217\302\371?=\n\327\243p=\366?\366(\\\217\302\365\350?\341z\024\256G\341\376?=\n\327\243p=\366?\000\000\000\000\000\000\374?H\341z\024\256G\371?R\270\036\205\353Q\374?\366(\\\217\302\365\370?\244p=\n\327\243\374?\366(\\\217\302\365\370?q=\n\327\243p\371?\327\243p=\n\327\367?\244p=\n\327\243\370?\315\314\314\314\314\314\370?\354Q\270\036\205\353\371?\000\000\000\000\000\000\374?\303\365(\\\217\302\371?\244p=\n\327\243\374?R\270\036\205\353Q\364?=\n\327\243p=\376?\303\365(\\\217\302\371?\303\365(\\\217\302\371?R\270\036\205\353Q\370?\366(\\\217\302\365\370?\n\327\243p=\n\367?\341z\024\256G\341\362?R\270\036\205\353Q\370?\303\365(\\\217\302\371?R\270\036\205\353Q\374?\303\365(\\\217\302\371?\303\365(\\\217\302\371?\303\365(\\\217\302\371?\000\000\000\000\000\000\374?\303\365(\\\217\302\371?R\270\036\205\353Q\370?\366(\\\217\302\365\360?\000\000\000\000\000\000\374?=\n\327\243p=\366?)\\\217\302\365(\370?H\341z\024\256G\371?)\\\217\302\365(\364?\256G\341z\024\256\373?\205\353Q\270\036\205\367?\256G\341z\024\256\367?\244p=\n\327\243\374?\\\217\302\365(\\\363?ffffff\366?\303\365(\\\217\302\371?\024\256G\341z\024\346?\244p=\n\327\243\000@\341z\024\256G\341\372?\327\243p=\n\327\373?\\\217\302\365(\\\373?\303\365(\\\217\302\371?\024\256G\341z\024\346?{\024\256G\341z\370?\037\205\353Q\270\036\371?\000\000\000\000\000\000\374?\256G\341z\024\256\367?R\270\036\205\353Q\374?333333\363?q=\n\327\243p\361?\303\365(\\\217\302\371?\303\365(\\\217\302\371?=\n\327\243p=\362?\303\365(\\\217\302\371?\315\314\314\314\314\314\370?\303\365(\\\217\302\371?\024\256G\341z\024\346?\217\302\365(\\\217\372?\303\365(\\\217\302\371?\232\231\231\231\231\231\371?\270\036\205\353Q\270\376?\354Q\270\036\205\353\371?\270\036\205\353Q\270\372?\303\365(\\\217\302\375?\366(\\\217\302\365\350?=\n\327\243p=\376?\232\231\231\231\231\231\371?H\341z\024\256G\365?\244p=\n\327\243\370?\303\365(\\\217\302\371?\205\353Q\270\036\205\373?R\270\036\205\353Q\374?\315\314\314\314\314\314\370?H\341z\024\256G\371?\205\353Q\270\036\205\373?333333\373?)\\\217\302\365(\364?\303\365(\\\217\302\371?\244p=\n\327\243\364?\232\231\231\231\231\231\371?\303\365(\\\217\302\371?\303\365(\\\217\302\371?\303\365(\\\217\302\371?=\n\327\243p=\366?\024\256G\341z\024\346?\232\231\231\231\231\231\361?\205\353Q\270\036\205\373?\366(\\\217\302\365\370?\327\243p=\n\327\363?\303\365(\\\217\302\371?\217\302\365(\\\217\376?\\\217\302\365(\\\363?\217\302\365(\\\217\366?\244p=\n\327\243\374?\256G\341z\024\256\373?\303\365(\\\217\302\371?\024\256G\341z\024\376?\303\365(\\\217\302\371?R\270\036\205\353Q\374?\303\365(\\\217\302\371?R\270\036\205\353Q\374?\303\365(\\\217\302\371?\256G\341z\024\256\367?H\341z\024\256G\371?{\024\256G\341z\374?\315\314\314\314\314\314\370?H\341z\024\256G\371?\232\231\231\231\231\231\361?\366(\\\217\302\365\364?\303\365(\\\217\302\361?\\\217\302\365(\\\367?H\341z\024\256G\371?\244p=\n\327\243\374?)\\\217\302\365(\360?=\n\327\243p=\366?\\\217\302\365(\\\373?\366(\\\217\302\365\370?\366(\\\217\302\365\370?333333\377?\244p=\n\327\243\374?{\024\256G\341z\374?\303\365(\\\217\302\371?333333\377?\\\217\302\365(\\\373?\270\036\205\353Q\270\376?\303\365(\\\217\302\371?\\\217\302\365(\\\373?\\\217\302\365(\\\367?\303\365(\\\217\302\371?\244p=\n\327\243\374?\000\000\000\000\000\000\374?\256G\341z\024\256\367?\366(\\\217\302\365\370?\000\000\000\000\000\000\374?\270\036\205\353Q\270\372?=\n\327\243p=\366?\303\365(\\\217\302\371?\n\327\243p=\n\377?=\n\327\243p=\366?\024\256G\341z\024\346?\315\314\314\314\314\314\370?H\341z\024\256G\365?\366(\\\217\302\365\370?\000\000\000\000\000\000\374?\270\036\205\353Q\270\366?\303\365(\\\217\302\371?=\n\327\243p=\366?{\024\256G\341z\374?R\270\036\205\353Q\374?\341z\024\256G\341\372?\256G\341z\024\256\367?\244p=\n\327\243\374?\024\256G\341z\024\346?q=\n\327\243p\371?R\270\036\205\353Q\370?\354Q\270\036\205\353\371?R\270\036\205\353Q\374?\303\365(\\\217\302\371?\303\365(\\\217\302\371?\024\256G\341z\024\346?\244p=\n\327\243\374?\024\256G\341z\024\346?\303\365(\\\217\302\371?\303\365(\\\217\302\371?R\270\036\205\353Q\370?333333\377?{\024\256G\341z\370?{\024\256G\341z\374?\315\314\314\314\314\314\370?\217\302\365(\\\217\376?\270\036\205\353Q\270\376?\303\365(\\\217\302\371?\303\365(\\\217\302\371?{\024\256G\341z\374?\354Q\270\036\205\353\371?R\270\036\205\353Q\374?H\341z\024\256G\365?\n\327\243p=\n\367?\244p=\n\327\243\374?\303\365(\\\217\302\371?\000\000\000\000\000\000\374?\024\256G\341z\024\376?q=\n\327\243p\361?R\270\036\205\353Q\370?\n\327\243p=\n\367?\244p=\n\327\243\374?ffffff\376?\303\365(\\\217\302\371?\303\365(\\\217\302\371?\244p=\n\327\243\374?\270\036\205\353Q\270\376?=\n\327\243p=\366?\303\365(\\\217\302\371?\303\365(\\\217\302\371?\366(\\\217\302\365\370?\024\256G\341z\024\346?R\270\036\205\353Q\370?\024\256G\341z\024\346?\303\365(\\\217\302\371?333333\377?=\n\327\243p=\366?H\341z\024\256G\371?\024\256G\341z\024\346?\024\256G\341z\024\346?333333\377?R\270\036\205\353Q\374?\000\000\000\000\000\000\374?\256G\341z\024\256\367?\000\000\000\000\000\000\370?ffffff\366?\000\000\000\000\000\000\374?\303\365(\\\217\302\371?\244p=\n\327\243\374?\303\365(\\\217\302\371?\270\036\205\353Q\270\362?H\341z\024\256G\371?\037\205\353Q\270\036\371?\232\231\231\231\231\231\361?\244p=\n\327\243\374?=\n\327\243p=\366?\303\365(\\\217\302\371?\000\000\000\000\000\000\374?)\\\217\302\365(\374?\354Q\270\036\205\353\371?\327\243p=\n\327\373?\\\217\302\365(\\\373?\256G\341z\024\256\367?{\024\256G\341z\364?{\024\256G\341z\370?=\n\327\243p=\376?\\\217\302\365(\\\347?\341z\024\256G\341\372?q=\n\327\243p\361?H\341z\024\256G\371?\037\205\353Q\270\036\371?\n\327\243p=\n\377?\303\365(\\\217\302\375?\303\365(\\\217\302\371?\217\302\365(\\\217\376?\244p=\n\327\243\374?=\n\327\243p=\366?\303\365(\\\217\302\371?\303\365(\\\217\302\371?=\n\327\243p=\366?\366(\\\217\302\365\370?\315\314\314\314\314\314\370?\303\365(\\\217\302\371?\205\353Q\270\036\205\373?\000\000\000\000\000\000\374?R\270\036\205\353Q\374?"
      }
    }
  }
}
node {
  name: "tensors/component_4"
  op: "Const"
  device: "/device:CPU:0"
  attr {
    key: "_output_shapes"
    value {
      list {
        shape {
          dim {
            size: 284
          }
        }
      }
    }
  }
  attr {
    key: "dtype"
    value {
      type: DT_DOUBLE
    }
  }
  attr {
    key: "value"
    value {
      tensor {
        dtype: DT_DOUBLE
        tensor_shape {
          dim {
            size: 284
          }
        }
        tensor_content: "\315\314\314\314\314\314-@\205\353Q\270\036\005)@ffffff-@\303\365(\\\217\302*@{\024\256G\341\372#@\270\036\205\353Q\270/@\232\231\231\231\231\031/@\n\327\243p=\n\027@\n\327\243p=\n\027@\303\365(\\\217\302*@q=\n\327\243p/@\303\365(\\\217\302*@\037\205\353Q\270\036$@\366(\\\217\302\365)@\024\256G\341z\0240@\244p=\n\327\243)@\315\314\314\314\314\314\'@\024\256G\341z\024%@fffff\346$@\315\314\314\314\314\314-@\217\302\365(\\\017-@\303\365(\\\217\302*@\217\302\365(\\\017\'@\341z\024\256G\341\031@\303\365(\\\217\0020@\217\302\365(\\\017\'@\217\302\365(\\\017-@\315\314\314\314\314L*@ffffff-@q=\n\327\243\360)@=\n\327\243p\275-@\366(\\\217\302\365)@\000\000\000\000\000\200*@\327\243p=\n\327(@)\\\217\302\365\250)@\315\314\314\314\314\314)@\341z\024\256G\341*@\217\302\365(\\\017-@\303\365(\\\217\302*@\315\314\314\314\314\314-@\024\256G\341z\024%@q=\n\327\243p/@33333\263*@\303\365(\\\217\302*@333333)@\366(\\\217\302\365)@\205\353Q\270\036\005(@\244p=\n\327\243#@333333)@\303\365(\\\217\302*@ffffff-@\303\365(\\\217\302*@\303\365(\\\217\302*@\303\365(\\\217\302*@\217\302\365(\\\017-@\303\365(\\\217\302*@\303\365(\\\217B)@)\\\217\302\365\250!@\217\302\365(\\\017-@\217\302\365(\\\017\'@\244p=\n\327#)@\315\314\314\314\314L*@\354Q\270\036\205\353$@H\341z\024\256\307,@ffffff(@\244p=\n\327\243(@=\n\327\243p\275-@\n\327\243p=\n$@\\\217\302\365(\\\'@\303\365(\\\217\302*@\n\327\243p=\n\027@\n\327\243p=J1@q=\n\327\243\360+@\\\217\302\365(\334,@q=\n\327\243p,@\303\365(\\\217\302*@\n\327\243p=\n\027@\354Q\270\036\205k)@\n\327\243p=\n*@\217\302\365(\\\017-@\037\205\353Q\270\236(@ffffff-@\354Q\270\036\205\353#@\232\231\231\231\231\031\"@\303\365(\\\217\302*@\303\365(\\\217\302*@\366(\\\217\302\365\"@\303\365(\\\217\302*@H\341z\024\256\307)@\303\365(\\\217\302*@\n\327\243p=\n\027@\217\302\365(\\\217+@\303\365(\\\217\302*@)\\\217\302\365\250*@\\\217\302\365(\334/@\366(\\\217\302\365*@\327\243p=\n\327+@fffff\346.@\341z\024\256G\341\031@\000\000\000\000\000\200/@\256G\341z\024\256*@)\\\217\302\365(&@)\\\217\302\365\250)@\303\365(\\\217\302*@\244p=\n\327\243,@ffffff-@H\341z\024\256\307)@\315\314\314\314\314L*@\256G\341z\024\256,@\327\243p=\nW,@\205\353Q\270\036\005%@\303\365(\\\217\302*@ffffff%@)\\\217\302\365\250*@\303\365(\\\217\302*@\303\365(\\\217\302*@\303\365(\\\217\302*@\217\302\365(\\\017\'@\n\327\243p=\n\027@\303\365(\\\217B\"@\256G\341z\024\256,@fffff\346)@\232\231\231\231\231\231$@\303\365(\\\217\302*@R\270\036\205\353\321/@\244p=\n\327#$@\366(\\\217\302u\'@\315\314\314\314\314\314-@33333\263,@\303\365(\\\217\302*@333333/@\303\365(\\\217\302*@ffffff-@\303\365(\\\217\302*@ffffff-@\303\365(\\\217\302*@\037\205\353Q\270\236(@\315\314\314\314\314L*@\024\256G\341z\224-@\270\036\205\353Q\270)@\315\314\314\314\314L*@\303\365(\\\217B\"@R\270\036\205\353\321%@\341z\024\256Ga\"@\\\217\302\365(\\(@\315\314\314\314\314L*@33333\263-@R\270\036\205\353\321 @\217\302\365(\\\017\'@\366(\\\217\302u,@\341z\024\256G\341)@q=\n\327\243\360)@\256G\341z\024.0@\315\314\314\314\314\314-@\024\256G\341z\224-@\303\365(\\\217\302*@\256G\341z\024.0@\366(\\\217\302u,@\\\217\302\365(\334/@\303\365(\\\217\302*@\354Q\270\036\205k,@H\341z\024\256G(@\303\365(\\\217\302*@\315\314\314\314\314\314-@\217\302\365(\\\017-@\205\353Q\270\036\205(@\366(\\\217\302\365)@\217\302\365(\\\017-@\270\036\205\353Q\270+@\217\302\365(\\\017\'@\303\365(\\\217\302*@)\\\217\302\365(0@\217\302\365(\\\017\'@\n\327\243p=\n\027@H\341z\024\256\307)@)\\\217\302\365(&@\205\353Q\270\036\005*@\217\302\365(\\\017-@\n\327\243p=\212\'@\303\365(\\\217\302*@\217\302\365(\\\017\'@\024\256G\341z\224-@ffffff-@\341z\024\256G\341+@\244p=\n\327\243(@33333\263-@\n\327\243p=\n\027@\000\000\000\000\000\200*@R\270\036\205\353Q)@\341z\024\256G\341*@ffffff-@\303\365(\\\217\302*@\303\365(\\\217\302*@\n\327\243p=\n\027@\315\314\314\314\314\314-@\n\327\243p=\n\027@\303\365(\\\217\302*@\303\365(\\\217\302*@R\270\036\205\353Q)@\256G\341z\024.0@q=\n\327\243p)@\024\256G\341z\224-@H\341z\024\256\307)@R\270\036\205\353\321/@\000\000\000\000\000\0000@\303\365(\\\217\302*@\303\365(\\\217\302*@\217\302\365(\\\217-@\366(\\\217\302\365*@ffffff-@)\\\217\302\365(&@\366(\\\217\302\365\'@\315\314\314\314\314\314-@\270\036\205\353Q\270*@\217\302\365(\\\017-@333333/@333333\"@333333)@q=\n\327\243\360\'@=\n\327\243p\275-@\244p=\n\327\243/@\303\365(\\\217\302*@\303\365(\\\217\302*@\315\314\314\314\314\314-@\327\243p=\n\327/@\217\302\365(\\\017\'@\303\365(\\\217\302*@\303\365(\\\217\302*@fffff\346)@\n\327\243p=\n\027@\303\365(\\\217B)@\n\327\243p=\n\027@\303\365(\\\217\302*@\256G\341z\024.0@\217\302\365(\\\017\'@\315\314\314\314\314L*@\n\327\243p=\n\027@\n\327\243p=\n\027@\256G\341z\024.0@ffffff-@\217\302\365(\\\017-@\037\205\353Q\270\236(@fffff\346(@\315\314\314\314\314L\'@\217\302\365(\\\017-@\303\365(\\\217\302*@\270\036\205\353Q\270-@\303\365(\\\217\302*@q=\n\327\243p#@\315\314\314\314\314L*@\n\327\243p=\n*@\303\365(\\\217B\"@\270\036\205\353Q\270-@\217\302\365(\\\017\'@\303\365(\\\217\302*@\217\302\365(\\\017-@=\n\327\243p=-@\354Q\270\036\205\353*@\\\217\302\365(\334,@\366(\\\217\302u,@\256G\341z\024\256(@\315\314\314\314\314L%@\354Q\270\036\205k)@\341z\024\256Ga/@\037\205\353Q\270\236&@\205\353Q\270\036\005,@333333\"@\315\314\314\314\314L*@\256G\341z\024.*@)\\\217\302\365(0@fffff\346.@=\n\327\243p\275*@R\270\036\205\353\321/@\315\314\314\314\314\314-@\217\302\365(\\\017\'@\303\365(\\\217\302*@\303\365(\\\217\302*@\217\302\365(\\\017\'@q=\n\327\243\360)@\270\036\205\353Q\270)@\303\365(\\\217\302*@\244p=\n\327\243,@\217\302\365(\\\017-@ffffff-@"
      }
    }
  }
}
node {
  name: "tensors/component_5"
  op: "Const"
  device: "/device:CPU:0"
  attr {
    key: "_output_shapes"
    value {
      list {
        shape {
          dim {
            size: 284
          }
        }
      }
    }
  }
  attr {
    key: "dtype"
    value {
      type: DT_DOUBLE
    }
  }
  attr {
    key: "value"
    value {
      tensor {
        dtype: DT_DOUBLE
        tensor_shape {
          dim {
            size: 284
          }
        }
        tensor_content: "\000\000\000\000\000\000\036@\315\314\314\314\314\314\020@\000\000\000\000\000\000\034@\315\314\314\314\314\314\020@\000\000\000\000\000\000\023@\000\000\000\000\000\000\035@\\\217\302\365(\\\034@\000\000\000\000\000\000\022@\000\000\000\000\000\000\030@\232\231\231\231\231\231\035@\341z\024\256G\341\035@\232\231\231\231\231\231\035@\024\256G\341z\024\023@)\\\217\302\365\250!@\256G\341z\024\256\036@{\024\256G\341z\033@\n\327\243p=\n\032@\315\314\314\314\314\314\032@\232\231\231\231\231\231\036@\000\000\000\000\000\000\026@\000\000\000\000\000\000 @333333\027@\000\000\000\000\000\000\022@\315\314\314\314\314\314\n@\024\256G\341z\024\037@\000\000\000\000\000\000\021@\\\217\302\365(\\\020@\037\205\353Q\270\036!@H\341z\024\256G\037@\303\365(\\\217\302!@\000\000\000\000\000\000 @\000\000\000\000\000\000 @H\341z\024\256G\033@\000\000\000\000\000\000\033@\256G\341z\024. @\000\000\000\000\000\000\033@\\\217\302\365(\\\037@ffffff\020@\232\231\231\231\231\231\035@\256G\341z\024\256\026@\354Q\270\036\205\353\034@\341z\024\256G\341\034@\000\000\000\000\000\000\034@\232\231\231\231\231\231\035@fffff\346 @\256G\341z\024\256\024@\n\327\243p=\212!@=\n\327\243p=\024@fffff\346 @\232\231\231\231\231\231\021@\354Q\270\036\205\353\036@333333\023@ffffff\036@333333!@\232\231\231\231\231\231\023@333333\027@\354Q\270\036\205\353\030@\205\353Q\270\036\205\035@\256G\341z\024\256\034@\000\000\000\000\000\000 @H\341z\024\256G @\037\205\353Q\270\036\033@ffffff\032@R\270\036\205\353Q\037@ffffff @\303\365(\\\217\302\034@H\341z\024\256G @\315\314\314\314\314\314\021@\232\231\231\231\231\231\032@ffffff @\000\000\000\000\000\000!@\000\000\000\000\000\000\036@ffffff\036@q=\n\327\243\360 @\232\231\231\231\231\231\034@\000\000\000\000\000\000\010@\000\000\000\000\000\000\036@\205\353Q\270\036\205\027@R\270\036\205\353Q\037@333333\021@\270\036\205\353Q\270\016@\\\217\302\365(\\\034@R\270\036\205\353Q\021@333333\025@333333\023@\315\314\314\314\314\314 @q=\n\327\243p\023@\315\314\314\314\314\314\020@\\\217\302\365(\334 @ffffff\036@\000\000\000\000\000\000 @333333\021@\000\000\000\000\000\000\034@\270\036\205\353Q\270\025@\000\000\000\000\000\000\037@\341z\024\256G\341\035@\270\036\205\353Q\270\034@=\n\327\243p= @\232\231\231\231\231\231\r@\217\302\365(\\\217\032@ffffff\033@ffffff\022@\315\314\314\314\314\314\033@ffffff\036@\315\314\314\314\314\314 @\270\036\205\353Q\270 @\\\217\302\365(\334 @=\n\327\243p=\022@\205\353Q\270\036\205\035@\256G\341z\024\256\037@\303\365(\\\217\302\022@\315\314\314\314\314\314\030@\000\000\000\000\000\000\023@\256G\341z\024\256\035@\232\231\231\231\231\231\025@\315\314\314\314\314\314\034@333333\037@\000\000\000\000\000\000#@\000\000\000\000\000\000!@\000\000\000\000\000\000 @ffffff\034@ffffff\006@\n\327\243p=\n\033@\232\231\231\231\231\231\031@\341z\024\256G\341\034@\024\256G\341z\024\037@333333\023@\256G\341z\024\256\032@\341z\024\256G\341\033@ffffff\022@\024\256G\341z\024\037@\232\231\231\231\231\231\021@333333\036@\232\231\231\231\231\231\021@\244p=\n\327\243\033@\000\000\000\000\000\000\010@\205\353Q\270\036\205\r@\303\365(\\\217\302\035@\205\353Q\270\036\205\031@\256G\341z\024. @\256G\341z\024\256\036@\000\000\000\000\000\000\"@\244p=\n\327\243\034@ffffff\023@\037\205\353Q\270\036\024@\037\205\353Q\270\036!@\244p=\n\327\243\033@)\\\217\302\365(\020@\000\000\000\000\000\000\023@\205\353Q\270\036\205\035@)\\\217\302\365( @333333\037@)\\\217\302\365(\035@R\270\036\205\353Q\037@\327\243p=\n\327\031@333333!@H\341z\024\256G\036@\256G\341z\024\256\033@\315\314\314\314\314\314\037@333333\037@{\024\256G\341z\033@\354Q\270\036\205k!@ffffff @\000\000\000\000\000\000 @\315\314\314\314\314\314\034@\000\000\000\000\000\000\030@\000\000\000\000\000\000\032@\270\036\205\353Q\270\035@{\024\256G\341z\032@\000\000\000\000\000\200 @\315\314\314\314\314\314\024@{\024\256G\341z\036@\000\000\000\000\000\200 @\000\000\000\000\000\000#@)\\\217\302\365(\035@333333\037@{\024\256G\341z\036@\217\302\365(\\\217\030@\341z\024\256G\341\032@\000\000\000\000\000\000 @\000\000\000\000\000\000\023@\256G\341z\024\256\033@\000\000\000\000\000\000 @\000\000\000\000\000\000 @\303\365(\\\217\302\034@ffffff\036@\000\000\000\000\000\000%@\\\217\302\365(\\\020@)\\\217\302\365\250 @\\\217\302\365(\\\037@\\\217\302\365(\\\034@\232\231\231\231\231\231\035@\000\000\000\000\000\000\024@\000\000\000\000\000\000\026@\000\000\000\000\000\000\030@\000\000\000\000\000\000\026@ffffff\032@\000\000\000\000\000\000\010@\000\000\000\000\000\000 @\327\243p=\n\327\036@\270\036\205\353Q\270 @\327\243p=\n\327\035@\000\000\000\000\000\000 @q=\n\327\243p\036@\354Q\270\036\205\353\036@333333!@333333\037@q=\n\327\243p\033@\270\036\205\353Q\270\037@\000\000\000\000\000\000\034@\000\000\000\000\000\000\"@\000\000\000\000\000\000\023@\000\000\000\000\000\000\022@=\n\327\243p=\034@\000\000\000\000\000\000\034@\205\353Q\270\036\205\034@333333\021@fffff\346 @\327\243p=\n\327\032@\n\327\243p=\n\033@)\\\217\302\365(\036@ffffff\016@ffffff\036@\256G\341z\024\256\024@ffffff\037@\000\000\000\000\000\000!@\000\000\000\000\000\000 @ffffff @333333\037@\000\000\000\000\000\000\034@\037\205\353Q\270\036 @\000\000\000\000\000\000\026@\232\231\231\231\231\231\035@)\\\217\302\365(\035@\000\000\000\000\000\000\025@\270\036\205\353Q8 @\000\000\000\000\000\000\026@\000\000\000\000\000\000\024@H\341z\024\256G\032@\024\256G\341z\024\031@\000\000\000\000\000\000\035@\037\205\353Q\270\036\021@\037\205\353Q\270\036!@\232\231\231\231\231\231\032@\232\231\231\231\231\231\033@ffffff @\244p=\n\327\243\033@\315\314\314\314\314\314\030@q=\n\327\243p\022@\303\365(\\\217\302\021@\n\327\243p=\n\037@\000\000\000\000\000\000 @\341z\024\256G\341\020@\000\000\000\000\000\000 @\000\000\000\000\000\000\"@\217\302\365(\\\217\034@\217\302\365(\\\217\026@\\\217\302\365(\\\021@q=\n\327\243\360 @\354Q\270\036\205\353\034@\217\302\365(\\\217\024@\315\314\314\314\314\314\032@\232\231\231\231\231\231\022@333333\033@\327\243p=\n\327\023@\341z\024\256G\341\032@333333\021@\037\205\353Q\270\036!@\000\000\000\000\000\000 @\270\036\205\353Q\270\032@R\270\036\205\353Q @\232\231\231\231\231\031 @\341z\024\256G\341\036@)\\\217\302\365\250 @\000\000\000\000\000\000\026@\000\000\000\000\000\000\010@\000\000\000\000\000\000 @\000\000\000\000\000\000\021@\000\000\000\000\000\000!@\024\256G\341z\024\031@\000\000\000\000\000\000\024@ffffff\036@\\\217\302\365(\\\020@\n\327\243p=\212 @"
      }
    }
  }
}
node {
  name: "tensors/component_6"
  op: "Const"
  device: "/device:CPU:0"
  attr {
    key: "_output_shapes"
    value {
      list {
        shape {
          dim {
            size: 284
          }
        }
      }
    }
  }
  attr {
    key: "dtype"
    value {
      type: DT_DOUBLE
    }
  }
  attr {
    key: "value"
    value {
      tensor {
        dtype: DT_DOUBLE
        tensor_shape {
          dim {
            size: 284
          }
        }
        tensor_content: "\217\302\365(\\\217\025@\217\302\365(\\\217\010@\303\365(\\\217\302\031@\037\205\353Q\270\036\026@\341z\024\256Ga.@\232\231\231\231\231\231\027@\n\327\243p=\n\030@\303\365(\\\217\302\325?\n\327\243p=\n\327?\205\353Q\270\036\205\030@\354Q\270\036\205\353\017@\024\256G\341z\024\023@\205\353Q\270\036\0050@R\270\036\205\353Q\021@\205\353Q\270\036\205\024@\\\217\302\365(\\2@)\\\217\302\365(\"@\256G\341z\024./@H\341z\024\256G!@\037\205\353Q\270\036\023@{\024\256G\341z\021@\341z\024\256G\341\004@\232\231\231\231\231\231\017@\341z\024\256G\341\n@\327\243p=\n\327\017@{\024\256G\341z\020@\354Q\270\036\205k/@\024\256G\341z\024\356?\000\000\000\000\000\000\024@ffffff\356?\000\000\000\000\000\000\022@H\341z\024\256G\025@\n\327\243p=\n\027@)\\\217\302\365(\030@\\\217\302\365(\\\007@\354Q\270\036\205\353\022@\354Q\270\036\205\353\r@\244p=\n\327c0@\205\353Q\270\036\205\007@\n\327\243p=\n\t@\000\000\000\000\000\200*@\327\243p=\n\327\034@333333\026@=\n\327\243p=#@\315\314\314\314\314\314\020@R\270\036\205\353Q\031@\205\353Q\270\036\205\007@\024\256G\341z\024/@\217\302\365(\\\217\016@H\341z\024\256G\t@\244p=\n\327\243\023@\024\256G\341z\024\027@R\270\036\205\353\321!@\232\231\231\231\231\231\001@\205\353Q\270\036\205\034@\341z\024\256G\341\035@\303\365(\\\217\302\030@\327\243p=\nW*@333333\025@\n\327\243p=\n\357?\024\256G\341z\024\004@\217\302\365(\\\217\021@33333\263$@\037\205\353Q\270\036\025@\\\217\302\365(\\\377?\217\302\365(\\\217\n@\024\256G\341z\024\025@q=\n\327\24300@\366(\\\217\302\365$@\244p=\n\327\243\014@\303\365(\\\217\302\013@\303\365(\\\217\302\024@\n\327\243p=\n\030@333333\t@ffffff\025@333333\367?\232\231\231\231\231\231\361?\037\205\353Q\270\036\027@ffffff\026@\\\217\302\365(\\\021@\366(\\\217\302\365\025@\315\314\314\314\314\314\031@\217\302\365(\\\017#@ffffff/@\256G\341z\024\256\036@q=\n\327\243p\355?ffffff/@\024\256G\341z\224.@\217\302\365(\\\217\014@\n\327\243p=\n\007@\303\365(\\\217\302\023@\354Q\270\036\205\353\020@\037\205\353Q\270\036\030@q=\n\327\243p\t@\244p=\n\327\243$@\315\314\314\314\314\314\026@333333\025@\270\036\205\353Q\270\023@\315\314\314\314\314\314\016@\256G\341z\024\256\024@\037\205\353Q\270^2@\244p=\n\327\243\031@\256G\341z\024\256\017@\270\036\205\353Q\270\031@\000\000\000\000\000\000\n@\327\243p=\n\327\021@\303\365(\\\217\302\355?\354Q\270\036\205\353\r@\205\353Q\270\036\205\024@\\\217\302\365(\\\024@q=\n\327\243p\027@\217\302\365(\\\017)@ffffff%@R\270\036\205\353Q\023@\256G\341z\024\256\t@\000\000\000\000\000\000\025@\303\365(\\\217\302\024@=\n\327\243p=\362?\315\314\314\314\314\314\016@\341z\024\256G\341\027@ffffff\030@\244p=\n\327\243\024@\232\231\231\231\231\031/@{\024\256G\341z$@\n\327\243p=\n\017@)\\\217\302\365(!@\n\327\243p=\212,@ffffff\030@\\\217\302\365(\\\027@\205\353Q\270\036\005 @\315\314\314\314\314\314\023@\n\327\243p=\n\020@\024\256G\341z\024\024@R\270\036\205\353Q+@{\024\256G\341z\030@\354Q\270\036\205\353\351?\256G\341z\024\256\035@\303\365(\\\217\302\025@\217\302\365(\\\217\032@ffffff\022@\341z\024\256G\341\020@\000\000\000\000\000\000\350?\024\256G\341z\224*@\217\302\365(\\\017/@\244p=\n\327\243+@\341z\024\256G\341\352?\000\000\000\000\000\000\032@\205\353Q\270\036\205,@\\\217\302\365(\\\037@)\\\217\302\365(\025@\232\231\231\231\231\231\024@ffffff\016@\354Q\270\036\205\353\030@H\341z\024\256G\023@\\\217\302\365(\\\033@\n\327\243p=\n\007@\000\000\000\000\000\000\025@ffffff\024@\205\353Q\270\036\205\017@\232\231\231\231\231\231\022@\244p=\n\327\243\027@q=\n\327\243p\007@q=\n\327\243p\355?\232\231\231\231\231\231\026@\303\365(\\\217\302\026@\n\327\243p=\n\031@)\\\217\302\365(\030@\303\365(\\\217\302\032@)\\\217\302\365(\030@\354Q\270\036\205\353\026@{\024\256G\341z\014@\315\314\314\314\314\314\024@\327\243p=\n\327\373?\000\000\000\000\000\000\000\000\327\243p=\n\327\026@\037\205\353Q\270\036\361?\205\353Q\270\036\205\025@\217\302\365(\\\217\032@\n\327\243p=\n%@)\\\217\302\365(\n@=\n\327\243p=\014@\217\302\365(\\\217\030@\024\256G\341z\024\024@R\270\036\205\353Q\020@\315\314\314\314\314\314\022@\303\365(\\\217\302\024@\n\327\243p=\n\363?H\341z\024\256G\025@\256G\341z\024\256\357?333333\017@\341z\024\256G\341\025@{\024\256G\341z\025@\270\036\205\353Q\270\n@\037\205\353Q\270\036\375?\n\327\243p=\212&@\205\353Q\270\036\205\003@\354Q\270\036\205k$@333333\001@\354Q\270\036\205\353\r@H\341z\024\256G\022@\366(\\\217\302\365\021@\205\353Q\270\036\205\025@\341z\024\256G\341\352?\000\000\000\000\000\000\020@\n\327\243p=\n\027@\024\256G\341z\024\016@\256G\341z\024\256\007@q=\n\327\243p\027@\205\353Q\270\036\205\023@\366(\\\217\302\365\030@\037\205\353Q\270\036\361?\270\036\205\353Q\270\'@\\\217\302\365(\\\026@\327\243p=\n\327\025@\024\256G\341z\024\025@=\n\327\243p=\035@\n\327\243p=\212\"@\315\314\314\314\314\314\020@\244p=\n\327#%@\366(\\\217\302\365\027@\000\000\000\000\000\000\020@33333\263$@\270\036\205\353Q\270\031@\315\314\314\314\314\314\010@\256G\341z\024\256\027@\037\205\353Q\270\036\345?q=\n\327\243p\355?ffffff\020@\327\243p=\n\327\353?\\\217\302\365(\\\347?R\270\036\205\353Q\360?\205\353Q\270\036\205\003@\341z\024\256Ga$@\205\353Q\270\036\205\030@{\024\256G\341z\014@\037\205\353Q\270\036\355?\244p=\n\327\243\000@\000\000\000\000\000\000\000\000{\024\256G\341z*@\341z\024\256G\341\027@\217\302\365(\\\217\025@\n\327\243p=\n\032@\341z\024\256G\341\016@\205\353Q\270\036\005%@)\\\217\302\365(\026@\000\000\000\000\000\000\025@333333\032@\256G\341z\024\256#@\\\217\302\365(\\/@333333\022@\303\365(\\\217\302\024@\256G\341z\024\256\357?\354Q\270\036\205\353\020@\000\000\000\000\000\000\020@q=\n\327\243p\t@\327\243p=\n\327\026@\232\231\231\231\231\3310@\000\000\000\000\000\000\022@\\\217\302\365(\\\013@\232\231\231\231\231\231\024@\256G\341z\024.+@\232\231\231\231\231\031/@\244p=\n\327\243\016@R\270\036\205\353Q\025@\024\256G\341z\024\030@\366(\\\217\302\365\027@\n\327\243p=\212\"@\366(\\\217\302\365\360?\270\036\205\353Q\270\016@\024\256G\341z\024)@\232\231\231\231\231\231\020@\341z\024\256G\341\022@333333\024@\217\302\365(\\\217\030@)\\\217\302\365(\002@\354Q\270\036\205\353\365?\341z\024\256G\341\021@ffffff\n@\217\302\365(\\\217\352?333333\026@\244p=\n\327\243\021@\327\243p=\n\327\022@\024\256G\341z\224/@\256G\341z\024\256\020@"
      }
    }
  }
}
node {
  name: "tensors/component_7"
  op: "Const"
  device: "/device:CPU:0"
  attr {
    key: "_output_shapes"
    value {
      list {
        shape {
          dim {
            size: 284
          }
        }
      }
    }
  }
  attr {
    key: "dtype"
    value {
      type: DT_INT64
    }
  }
  attr {
    key: "value"
    value {
      tensor {
        dtype: DT_INT64
        tensor_shape {
          dim {
            size: 284
          }
        }
        tensor_content: "\r\000\000\000\000\000\000\000\004\000\000\000\000\000\000\000\000\000\000\000\000\000\000\000\004\000\000\000\000\000\000\000\r\000\000\000\000\000\000\000\r\000\000\000\000\000\000\000\r\000\000\000\000\000\000\000\002\000\000\000\000\000\000\000\000\000\000\000\000\000\000\000\000\000\000\000\000\000\000\000\r\000\000\000\000\000\000\000\000\000\000\000\000\000\000\000\023\000\000\000\000\000\000\000\000\000\000\000\000\000\000\000\023\000\000\000\000\000\000\000\024\000\000\000\000\000\000\000\017\000\000\000\000\000\000\000\030\000\000\000\000\000\000\000\007\000\000\000\000\000\000\000\001\000\000\000\000\000\000\000\r\000\000\000\000\000\000\000\000\000\000\000\000\000\000\000\004\000\000\000\000\000\000\000\004\000\000\000\000\000\000\000\r\000\000\000\000\000\000\000\004\000\000\000\000\000\000\000\001\000\000\000\000\000\000\000\r\000\000\000\000\000\000\000\r\000\000\000\000\000\000\000\r\000\000\000\000\000\000\000\r\000\000\000\000\000\000\000\r\000\000\000\000\000\000\000\000\000\000\000\000\000\000\000\r\000\000\000\000\000\000\000\000\000\000\000\000\000\000\000\002\000\000\000\000\000\000\000\000\000\000\000\000\000\000\000\001\000\000\000\000\000\000\000\002\000\000\000\000\000\000\000\000\000\000\000\000\000\000\000\000\000\000\000\000\000\000\000\r\000\000\000\000\000\000\000\000\000\000\000\000\000\000\000\000\000\000\000\000\000\000\000\r\000\000\000\000\000\000\000\002\000\000\000\000\000\000\000\r\000\000\000\000\000\000\000\006\000\000\000\000\000\000\000\r\000\000\000\000\000\000\000\002\000\000\000\000\000\000\000\r\000\000\000\000\000\000\000\004\000\000\000\000\000\000\000\013\000\000\000\000\000\000\000\r\000\000\000\000\000\000\000\004\000\000\000\000\000\000\000\022\000\000\000\000\000\000\000\000\000\000\000\000\000\000\000\000\000\000\000\000\000\000\000\000\000\000\000\000\000\000\000\002\000\000\000\000\000\000\000\000\000\000\000\000\000\000\000\000\000\000\000\000\000\000\000\000\000\000\000\000\000\000\000\000\000\000\000\000\000\000\000\000\000\000\000\000\000\000\000\002\000\000\000\000\000\000\000\r\000\000\000\000\000\000\000\006\000\000\000\000\000\000\000\004\000\000\000\000\000\000\000\023\000\000\000\000\000\000\000\000\000\000\000\000\000\000\000\r\000\000\000\000\000\000\000\000\000\000\000\000\000\000\000\r\000\000\000\000\000\000\000\000\000\000\000\000\000\000\000\000\000\000\000\000\000\000\000\000\000\000\000\000\000\000\000\002\000\000\000\000\000\000\000\r\000\000\000\000\000\000\000\004\000\000\000\000\000\000\000\004\000\000\000\000\000\000\000\r\000\000\000\000\000\000\000\017\000\000\000\000\000\000\000\004\000\000\000\000\000\000\000\004\000\000\000\000\000\000\000\r\000\000\000\000\000\000\000\023\000\000\000\000\000\000\000\001\000\000\000\000\000\000\000\r\000\000\000\000\000\000\000\000\000\000\000\000\000\000\000\002\000\000\000\000\000\000\000\004\000\000\000\000\000\000\000\002\000\000\000\000\000\000\000\000\000\000\000\000\000\000\000\r\000\000\000\000\000\000\000\000\000\000\000\000\000\000\000\000\000\000\000\000\000\000\000\r\000\000\000\000\000\000\000\001\000\000\000\000\000\000\000\002\000\000\000\000\000\000\000\024\000\000\000\000\000\000\000\004\000\000\000\000\000\000\000\000\000\000\000\000\000\000\000\000\000\000\000\000\000\000\000\r\000\000\000\000\000\000\000\r\000\000\000\000\000\000\000\r\000\000\000\000\000\000\000\002\000\000\000\000\000\000\000\r\000\000\000\000\000\000\000\000\000\000\000\000\000\000\000\002\000\000\000\000\000\000\000\004\000\000\000\000\000\000\000\004\000\000\000\000\000\000\000\000\000\000\000\000\000\000\000\000\000\000\000\000\000\000\000\000\000\000\000\000\000\000\000\014\000\000\000\000\000\000\000\r\000\000\000\000\000\000\000\000\000\000\000\000\000\000\000\004\000\000\000\000\000\000\000\000\000\000\000\000\000\000\000\"\000\000\000\000\000\000\000\030\000\000\000\000\000\000\000\006\000\000\000\000\000\000\000\002\000\000\000\000\000\000\000\004\000\000\000\000\000\000\000\004\000\000\000\000\000\000\000\000\000\000\000\000\000\000\000\r\000\000\000\000\000\000\000\000\000\000\000\000\000\000\000\023\000\000\000\000\000\000\000\004\000\000\000\000\000\000\000\r\000\000\000\000\000\000\000\000\000\000\000\000\000\000\000\000\000\000\000\000\000\000\000\000\000\000\000\000\000\000\000\007\000\000\000\000\000\000\000\014\000\000\000\000\000\000\000\000\000\000\000\000\000\000\000\000\000\000\000\000\000\000\000\000\000\000\000\000\000\000\000\000\000\000\000\000\000\000\000\000\000\000\000\000\000\000\000\004\000\000\000\000\000\000\000\004\000\000\000\000\000\000\000\r\000\000\000\000\000\000\000\000\000\000\000\000\000\000\000\023\000\000\000\000\000\000\000\004\000\000\000\000\000\000\000\000\000\000\000\000\000\000\000\r\000\000\000\000\000\000\000\000\000\000\000\000\000\000\000\r\000\000\000\000\000\000\000\r\000\000\000\000\000\000\000\000\000\000\000\000\000\000\000\r\000\000\000\000\000\000\000\023\000\000\000\000\000\000\000\000\000\000\000\000\000\000\000\r\000\000\000\000\000\000\000\001\000\000\000\000\000\000\000\r\000\000\000\000\000\000\000\r\000\000\000\000\000\000\000\r\000\000\000\000\000\000\000\r\000\000\000\000\000\000\000\000\000\000\000\000\000\000\000\000\000\000\000\000\000\000\000\000\000\000\000\000\000\000\000\r\000\000\000\000\000\000\000\r\000\000\000\000\000\000\000\006\000\000\000\000\000\000\000\002\000\000\000\000\000\000\000\023\000\000\000\000\000\000\000\006\000\000\000\000\000\000\000\000\000\000\000\000\000\000\000\r\000\000\000\000\000\000\000\000\000\000\000\000\000\000\000\r\000\000\000\000\000\000\000\000\000\000\000\000\000\000\000\004\000\000\000\000\000\000\000\002\000\000\000\000\000\000\000\002\000\000\000\000\000\000\000\r\000\000\000\000\000\000\000\r\000\000\000\000\000\000\000\r\000\000\000\000\000\000\000\002\000\000\000\000\000\000\000\r\000\000\000\000\000\000\000\004\000\000\000\000\000\000\000\004\000\000\000\000\000\000\000\002\000\000\000\000\000\000\000\000\000\000\000\000\000\000\000\000\000\000\000\000\000\000\000\000\000\000\000\000\000\000\000\002\000\000\000\000\000\000\000\000\000\000\000\000\000\000\000\005\000\000\000\000\000\000\000\000\000\000\000\000\000\000\000\004\000\000\000\000\000\000\000\000\000\000\000\000\000\000\000\r\000\000\000\000\000\000\000\r\000\000\000\000\000\000\000\r\000\000\000\000\000\000\000\r\000\000\000\000\000\000\000\r\000\000\000\000\000\000\000\r\000\000\000\000\000\000\000\r\000\000\000\000\000\000\000\000\000\000\000\000\000\000\000\000\000\000\000\000\000\000\000\000\000\000\000\000\000\000\000\r\000\000\000\000\000\000\000\000\000\000\000\000\000\000\000\r\000\000\000\000\000\000\000\004\000\000\000\000\000\000\000\004\000\000\000\000\000\000\000\000\000\000\000\000\000\000\000\000\000\000\000\000\000\000\000\r\000\000\000\000\000\000\000\002\000\000\000\000\000\000\000\r\000\000\000\000\000\000\000\004\000\000\000\000\000\000\000\000\000\000\000\000\000\000\000\r\000\000\000\000\000\000\000\021\000\000\000\000\000\000\000\000\000\000\000\000\000\000\000\002\000\000\000\000\000\000\000\r\000\000\000\000\000\000\000\000\000\000\000\000\000\000\000\002\000\000\000\000\000\000\000\023\000\000\000\000\000\000\000\002\000\000\000\000\000\000\000\000\000\000\000\000\000\000\000\002\000\000\000\000\000\000\000\000\000\000\000\000\000\000\000\000\000\000\000\000\000\000\000\r\000\000\000\000\000\000\000\000\000\000\000\000\000\000\000\r\000\000\000\000\000\000\000\000\000\000\000\000\000\000\000\000\000\000\000\000\000\000\000\017\000\000\000\000\000\000\000\000\000\000\000\000\000\000\000\000\000\000\000\000\000\000\000\001\000\000\000\000\000\000\000\r\000\000\000\000\000\000\000\004\000\000\000\000\000\000\000\000\000\000\000\000\000\000\000\r\000\000\000\000\000\000\000\000\000\000\000\000\000\000\000\r\000\000\000\000\000\000\000\023\000\000\000\000\000\000\000\002\000\000\000\000\000\000\000\r\000\000\000\000\000\000\000\000\000\000\000\000\000\000\000\004\000\000\000\000\000\000\000\002\000\000\000\000\000\000\000\r\000\000\000\000\000\000\000\r\000\000\000\000\000\000\000\000\000\000\000\000\000\000\000\004\000\000\000\000\000\000\000\r\000\000\000\000\000\000\000\000\000\000\000\000\000\000\000\004\000\000\000\000\000\000\000\030\000\000\000\000\000\000\000\002\000\000\000\000\000\000\000\002\000\000\000\000\000\000\000\002\000\000\000\000\000\000\000\r\000\000\000\000\000\000\000\002\000\000\000\000\000\000\000\r\000\000\000\000\000\000\000\r\000\000\000\000\000\000\000\017\000\000\000\000\000\000\000\r\000\000\000\000\000\000\000\000\000\000\000\000\000\000\000\023\000\000\000\000\000\000\000\014\000\000\000\000\000\000\000\000\000\000\000\000\000\000\000\000\000\000\000\000\000\000\000\005\000\000\000\000\000\000\000\002\000\000\000\000\000\000\000\r\000\000\000\000\000\000\000\002\000\000\000\000\000\000\000\001\000\000\000\000\000\000\000\r\000\000\000\000\000\000\000\001\000\000\000\000\000\000\000\r\000\000\000\000\000\000\000"
      }
    }
  }
}
node {
  name: "tensors/component_8"
  op: "Const"
  device: "/device:CPU:0"
  attr {
    key: "_output_shapes"
    value {
      list {
        shape {
          dim {
            size: 284
          }
        }
      }
    }
  }
  attr {
    key: "dtype"
    value {
      type: DT_DOUBLE
    }
  }
  attr {
    key: "value"
    value {
      tensor {
        dtype: DT_DOUBLE
        tensor_shape {
          dim {
            size: 284
          }
        }
        tensor_content: "\000\000\000\000\000\0006\300\000\000\000\000\000\000F\300\000\000\000\000\000\200A\300\000\000\000\000\000\000F\300\000\000\000\000\000\000C\300\000\000\000\000\000\200A\300\000\000\000\000\000\200A\300\000\000\000\000\000\000\000\000\000\000\000\000\000\000\000\000\000\000\000\000\000\200A\300\000\000\000\000\000\0006\300\000\000\000\000\000\000.\300\000\000\000\000\000\000C\300\000\000\000\000\000\000.\300\000\000\000\000\000\0006\300\000\000\000\000\000\200]\300\000\000\000\000\000\200H\300\000\000\000\000\000\300Q\300\000\000\000\000\000\000U\300\000\000\000\000\000\000 \300\000\000\000\000\000\0006\300\000\000\000\000\000\000:\300\000\000\000\000\000\000\000\000\000\000\000\000\000\0002\300\000\000\000\000\000\0006\300\000\000\000\000\000\000\000\000\000\000\000\000\000\0006\300\000\000\000\000\000\000 \300\000\000\000\000\000\0006\300\000\000\000\000\000\000 \300\000\000\000\000\000\0006\300\000\000\000\000\000\0006\300\000\000\000\000\000\0006\300\000\000\000\000\000\0006\300\000\000\000\000\000\000\034\300\000\000\000\000\000\0006\300\000\000\000\000\000\0006\300\000\000\000\000\000\0006\300\000\000\000\000\000\0002\300\000\000\000\000\000\000:\300\000\000\000\000\000\000L\300\000\000\000\000\000\200A\300\000\000\000\000\000\0006\300\000\000\000\000\000\000E\300\000\000\000\000\000\0006\300\000\000\000\000\000\000>\300\000\000\000\000\000\0006\300\000\000\000\000\000\000C\300\000\000\000\000\000\0006\300\000\000\000\000\000\000>\300\000\000\000\000\000\0006\300\000\000\000\000\000\000\030\300\000\000\000\000\000\000 \300\000\000\000\000\000\0002\300\000\000\000\000\000\000(\300\000\000\000\000\000\000>\300\000\000\000\000\000\0006\300\000\000\000\000\000\000L\300\000\000\000\000\000\0006\300\000\000\000\000\000\000 \300\000\000\000\000\000\000\034\300\000\000\000\000\000\0006\300\000\000\000\000\000\200H\300\000\000\000\000\000\200A\300\000\000\000\000\000\000\034\300\000\000\000\000\000\0006\300\000\000\000\000\000\200A\300\000\000\000\000\000\000C\300\000\000\000\000\000\200H\300\000\000\000\000\000\000\034\300\000\000\000\000\000\000\360\277\000\000\000\000\000\200A\300\000\000\000\000\000\200A\300\000\000\000\000\000\0006\300\000\000\000\000\000\0006\300\000\000\000\000\000\000\000\000\000\000\000\000\000\000\360\277\000\000\000\000\000\000>\300\000\000\000\000\000\0006\300\000\000\000\000\000\000F\300\000\000\000\000\000\0002\300\000\000\000\000\000\200A\300\000\000\000\000\000\000?\300\000\000\000\000\000\000C\300\000\000\000\000\000\000(\300\000\000\000\000\000\000 \300\000\000\000\000\000\000C\300\000\000\000\000\000\0006\300\000\000\000\000\000\000 \300\000\000\000\000\000\0002\300\000\000\000\000\000\000\000\000\000\000\000\000\000\000F\300\000\000\000\000\000\200A\300\000\000\000\000\000\000 \300\000\000\000\000\000\000?\300\000\000\000\000\000\200A\300\000\000\000\000\000\0006\300\000\000\000\000\000\200A\300\000\000\000\000\000\000\034\300\000\000\000\000\000\0006\300\000\000\000\000\000\200]\300\000\000\000\000\000\000\020\300\000\000\000\000\000\0006\300\000\000\000\000\000\000>\300\000\000\000\000\000\0006\300\000\000\000\000\000\200A\300\000\000\000\000\000\000 \300\000\000\000\000\000\000>\300\000\000\000\000\000\0006\300\000\000\000\000\000\200A\300\000\000\000\000\000\000>\300\000\000\000\000\000\200H\300\000\000\000\000\000\200H\300\000\000\000\000\000\0006\300\000\000\000\000\000\000 \300\000\000\000\000\000\0006\300\000\000\000\000\000\0006\300\000\000\000\000\000\000\000\300\000\000\000\000\000\000\000\000\000\000\000\000\000\0006\300\000\000\000\000\000\000>\300\000\000\000\000\000\000C\300\000\000\000\000\000\300Q\300\000\000\000\000\000\200D\300\000\000\000\000\000\0006\300\000\000\000\000\000\000U\300\000\000\000\000\000\200H\300\000\000\000\000\000\000D\300\000\000\000\000\000\0006\300\000\000\000\000\000\200P\300\000\000\000\000\000\0006\300\000\000\000\000\000\000\000\000\000\000\000\000\000\0006\300\000\000\000\000\000\200C\300\000\000\000\000\000\200A\300\000\000\000\000\000\000\000\000\000\000\000\000\000\0002\300\000\000\000\000\000\0006\300\000\000\000\000\000\200A\300\000\000\000\000\000\200A\300\000\000\000\000\000\0006\300\000\000\000\000\000\000\000\300\000\000\000\000\000\000L\300\000\000\000\000\000\000C\300\000\000\000\000\000\200H\300\000\000\000\000\000\000\034\300\000\000\000\000\000\000>\300\000\000\000\000\000\000C\300\000\000\000\000\000\000(\300\000\000\000\000\000\0006\300\000\000\000\000\000\0006\300\000\000\000\000\000\0006\300\000\000\000\000\000\200A\300\000\000\000\000\000\0006\300\000\000\000\000\000\200A\300\000\000\000\000\000\0002\300\000\000\000\000\000\0006\300\000\000\000\000\000\0006\300\000\000\000\000\000\0006\300\000\000\000\000\000\000\034\300\000\000\000\000\000\0006\300\000\000\000\000\000\0006\300\000\000\000\000\000\000\024\300\000\000\000\000\000\200A\300\000\000\000\000\000\0006\300\000\000\000\000\000\0006\300\000\000\000\000\000\0006\300\000\000\000\000\000\200A\300\000\000\000\000\000\0006\300\000\000\000\000\000\0006\300\000\000\000\000\000\000:\300\000\000\000\000\000\0006\300\000\000\000\000\000\000.\300\000\000\000\000\000\000\000\000\000\000\000\000\000\0006\300\000\000\000\000\000\000\034\300\000\000\000\000\000\0006\300\000\000\000\000\000\200A\300\000\000\000\000\000\200H\300\000\000\000\000\000\000 \300\000\000\000\000\000\000\000\300\000\000\000\000\000\200A\300\000\000\000\000\000\0006\300\000\000\000\000\000\0006\300\000\000\000\000\000\0006\300\000\000\000\000\000\0006\300\000\000\000\000\000\000\000\000\000\000\000\000\000\000F\300\000\000\000\000\000\000 \300\000\000\000\000\000\0006\300\000\000\000\000\000\0006\300\000\000\000\000\000\0006\300\000\000\000\000\000\000\030\300\000\000\000\000\000\000\000\000\000\000\000\000\000\200H\300\000\000\000\000\000\000\030\300\000\000\000\000\000\200H\300\000\000\000\000\000\000\000\000\000\000\000\000\000\0006\300\000\000\000\000\000\0006\300\000\000\000\000\000\0006\300\000\000\000\000\000\0006\300\000\000\000\000\000\000 \300\000\000\000\000\000\0006\300\000\000\000\000\000\200A\300\000\000\000\000\000\000.\300\000\000\000\000\000\0002\300\000\000\000\000\000\000D\300\000\000\000\000\000\0006\300\000\000\000\000\000\000>\300\000\000\000\000\000\000\034\300\000\000\000\000\000\200H\300\000\000\000\000\000\000\020\300\000\000\000\000\000\0006\300\000\000\000\000\000\0006\300\000\000\000\000\000\200A\300\000\000\000\000\000\000U\300\000\000\000\000\000\0006\300\000\000\000\000\000\000U\300\000\000\000\000\000\000D\300\000\000\000\000\000\0006\300\000\000\000\000\000\000F\300\000\000\000\000\000\000=\300\000\000\000\000\000\000 \300\000\000\000\000\000\200A\300\000\000\000\000\000\000 \300\000\000\000\000\000\000 \300\000\000\000\000\000\000\034\300\000\000\000\000\000\000 \300\000\000\000\000\000\000\000\000\000\000\000\000\000\000 \300\000\000\000\000\000\000\024\300\000\000\000\000\000\200H\300\000\000\000\000\000\000D\300\000\000\000\000\000\000\030\300\000\000\000\000\000\000 \300\000\000\000\000\000\000 \300\000\000\000\000\000\000\000\000\000\000\000\000\000\000C\300\000\000\000\000\000\200A\300\000\000\000\000\000\0006\300\000\000\000\000\000\000\034\300\000\000\000\000\000\0006\300\000\000\000\000\000\200H\300\000\000\000\000\000\0006\300\000\000\000\000\000\0006\300\000\000\000\000\000\000>\300\000\000\000\000\000\0009\300\000\000\000\000\000\000C\300\000\000\000\000\000\000>\300\000\000\000\000\000\0006\300\000\000\000\000\000\000\034\300\000\000\000\000\000\000F\300\000\000\000\000\000\000\024\300\000\000\000\000\000\000 \300\000\000\000\000\000\0006\300\000\000\000\000\000\300T\300\000\000\000\000\000\000F\300\000\000\000\000\000\0006\300\000\000\000\000\000\0006\300\000\000\000\000\000\200H\300\000\000\000\000\000\300Q\300\000\000\000\000\000\000>\300\000\000\000\000\000\0006\300\000\000\000\000\000\000>\300\000\000\000\000\000\0006\300\000\000\000\000\000\000U\300\000\000\000\000\000\000\034\300\000\000\000\000\000\0006\300\000\000\000\000\000\000C\300\000\000\000\000\000\0006\300\000\000\000\000\000\200A\300\000\000\000\000\000\0006\300\000\000\000\000\000\0006\300\000\000\000\000\000\000 \300\000\000\000\000\000\000\000\000\000\000\000\000\000\000 \300\000\000\000\000\000\000>\300\000\000\000\000\000\000 \300\000\000\000\000\000\0006\300\000\000\000\000\000\000>\300\000\000\000\000\000\0006\300\000\000\000\000\000\0006\300\000\000\000\000\000\0006\300"
      }
    }
  }
}
node {
  name: "tensors/component_9"
  op: "Const"
  device: "/device:CPU:0"
  attr {
    key: "_output_shapes"
    value {
      list {
        shape {
          dim {
            size: 284
          }
        }
      }
    }
  }
  attr {
    key: "dtype"
    value {
      type: DT_DOUBLE
    }
  }
  attr {
    key: "value"
    value {
      tensor {
        dtype: DT_DOUBLE
        tensor_shape {
          dim {
            size: 284
          }
        }
        tensor_content: "\217\302\365(\\\217\025@\327\243p=\n\327\013@)\\\217\302\365(\034@ffffff\031@\270\036\205\353Q\270%@\327\243p=\n\327\031@R\270\036\205\353Q\032@=\n\327\243p=\362?333333\303?\270\036\205\353Q\270\032@\\\217\302\365(\\\017@\\\217\302\365(\\\023@\205\353Q\270\036\0050@\303\365(\\\217\302\022@H\341z\024\256G\025@ffffff2@\366(\\\217\302\365\"@q=\n\327\24301@\366(\\\217\302\365!@\232\231\231\231\231\231\022@{\024\256G\341z\021@\\\217\302\365(\\\001@q=\n\327\243p\025@H\341z\024\256G\017@)\\\217\302\365(\020@{\024\256G\341z\023@\354Q\270\036\205k/@\n\327\243p=\n\005@\232\231\231\231\231\231\025@\000\000\000\000\000\000\006@\256G\341z\024\256\023@H\341z\024\256G\025@q=\n\327\243p\031@\232\231\231\231\231\231\032@\n\327\243p=\n\003@\217\302\365(\\\217\026@333333\017@\037\205\353Q\270^0@\244p=\n\327\243\n@\n\327\243p=\n\007@q=\n\327\243\360-@\327\243p=\n\327\034@{\024\256G\341z\030@\256G\341z\024.$@\315\314\314\314\314\314\020@\037\205\353Q\270\036\032@\205\353Q\270\036\205\007@\037\205\353Q\270\036&@\315\314\314\314\314\314\020@\217\302\365(\\\217\014@\315\314\314\314\314\314\025@ffffff\033@\232\231\231\231\231\231%@\232\231\231\231\231\231\001@\024\256G\341z\024 @\303\365(\\\217B @\\\217\302\365(\\\033@\205\353Q\270\036\005.@\205\353Q\270\036\205\026@\232\231\231\231\231\231\013@\000\000\000\000\000\000\000@\341z\024\256G\341\022@)\\\217\302\365(%@\256G\341z\024\256\024@\205\353Q\270\036\205\367?\315\314\314\314\314\314\022@\315\314\314\314\314\314\026@\354Q\270\036\205+0@ffffff%@\244p=\n\327\243\014@\341z\024\256G\341\n@\000\000\000\000\000\000\026@\327\243p=\n\327\031@\\\217\302\365(\\\013@\024\256G\341z\024\027@\354Q\270\036\205\353\365?\341z\024\256G\341\352?)\\\217\302\365(\031@ffffff\026@)\\\217\302\365(\024@\270\036\205\353Q\270\026@ffffff\034@\270\036\205\353Q8#@\341z\024\256Ga&@\\\217\302\365(\\!@\232\231\231\231\231\231\t@\354Q\270\036\205k/@\000\000\000\000\000\200.@\217\302\365(\\\217\014@\256G\341z\024\256\001@\341z\024\256G\341\022@\270\036\205\353Q\270\023@\\\217\302\365(\\\032@\341z\024\256G\341\010@\327\243p=\nW\'@333333\030@\037\205\353Q\270\036\027@\270\036\205\353Q\270\023@\315\314\314\314\314\314\016@333333\025@ffffff2@\354Q\270\036\205\353\035@ffffff\020@\303\365(\\\217\302\026@\000\000\000\000\000\000\n@H\341z\024\256G\023@\217\302\365(\\\217\014@\354Q\270\036\205\353\r@\217\302\365(\\\217\026@ffffff\024@\n\327\243p=\n\030@\217\302\365(\\\017)@33333\263%@333333\025@333333\t@\037\205\353Q\270\036\027@\024\256G\341z\024\026@=\n\327\243p=\362?\n\327\243p=\n\017@\244p=\n\327\243\030@ffffff\030@\244p=\n\327\243\024@\244p=\n\327#1@{\024\256G\341z$@H\341z\024\256G\021@\n\327\243p=\212!@\341z\024\256G\341,@q=\n\327\243p\032@\232\231\231\231\231\231\031@\\\217\302\365(\\!@333333\025@\366(\\\217\302\365\023@\n\327\243p=\n\026@{\024\256G\341z+@\341z\024\256G\341\032@\354Q\270\036\205\353\351?\315\314\314\314\314\314\036@=\n\327\243p=\027@)\\\217\302\365(\035@\217\302\365(\\\217\023@ffffff\022@\037\205\353Q\270\036\325?fffff\346-@q=\n\327\243\360.@{\024\256G\341\372+@\341z\024\256G\341\352?\000\000\000\000\000\000\032@\000\000\000\000\000\200,@\217\302\365(\\\217!@\303\365(\\\217\302\025@\232\231\231\231\231\231\024@{\024\256G\341z\020@\037\205\353Q\270\036\033@\037\205\353Q\270\036\025@\000\000\000\000\000\000\036@\232\231\231\231\231\231\001@=\n\327\243p=\025@\315\314\314\314\314\314\025@\\\217\302\365(\\\020@R\270\036\205\353Q\016@\354Q\270\036\205\353\031@\256G\341z\024\256\t@333333\t@{\024\256G\341z\030@\256G\341z\024\256\027@\256G\341z\024\256\033@\270\036\205\353Q\270\032@\366(\\\217\302\365\034@q=\n\327\243p\032@ffffff\027@\\\217\302\365(\\\r@=\n\327\243p=\025@H\341z\024\256G\361?\232\231\231\231\231\231\311?333333\031@\354Q\270\036\205\353\321?\270\036\205\353Q\270\027@333333\035@{\024\256G\341z%@)\\\217\302\365(\n@q=\n\327\243p\017@\244p=\n\327\243\033@\303\365(\\\217\302\025@R\270\036\205\353Q\020@\315\314\314\314\314\314\022@\303\365(\\\217\302\026@R\270\036\205\353Q\364?H\341z\024\256G\030@\217\302\365(\\\217\004@333333\017@\n\327\243p=\n\027@333333\027@=\n\327\243p=\016@\000\000\000\000\000\000\374?\000\000\000\000\000\000\'@\341z\024\256G\341\002@\256G\341z\024\256$@H\341z\024\256G\001@\354Q\270\036\205\353\r@\270\036\205\353Q\270\024@\366(\\\217\302\365\021@\217\302\365(\\\217\027@333333\007@\327\243p=\n\327\017@\n\327\243p=\n\031@)\\\217\302\365(\020@\205\353Q\270\036\205\013@{\024\256G\341z\031@\205\353Q\270\036\205\023@R\270\036\205\353Q\031@\366(\\\217\302\365\360?\205\353Q\270\036\005(@ffffff\032@\024\256G\341z\024\030@ffffff\026@=\n\327\243p=\035@=\n\327\243p\275\"@\315\314\314\314\314\314\020@\024\256G\341z\224%@\000\000\000\000\000\000\032@\232\231\231\231\231\231\017@fffff\346%@\341z\024\256G\341\026@\244p=\n\327\243\014@\256G\341z\024\256\027@ffffff\014@)\\\217\302\365(\n@\244p=\n\327\243\014@\327\243p=\n\327\r@\232\231\231\231\231\231\341?\217\302\365(\\\217\376?333333\003@\037\205\353Q\270\236%@\205\353Q\270\036\205\030@\256G\341z\024\256\013@\366(\\\217\302\365\n@\303\365(\\\217\302\001@\270\036\205\353Q\270\236?\256G\341z\024.+@\354Q\270\036\205\353\032@\\\217\302\365(\\\026@\341z\024\256G\341\031@\341z\024\256G\341\016@\366(\\\217\302u%@\270\036\205\353Q\270\027@q=\n\327\243p\026@\000\000\000\000\000\000\032@\\\217\302\365(\334$@\341z\024\256Ga/@\354Q\270\036\205\353\024@\341z\024\256G\341\026@\244p=\n\327\243\320?\270\036\205\353Q\270\023@{\024\256G\341z\021@q=\n\327\243p\t@\n\327\243p=\n\031@\256G\341z\024\256/@333333\025@\\\217\302\365(\\\013@\n\327\243p=\n\026@\205\353Q\270\036\205+@\244p=\n\327#1@\244p=\n\327\243\016@=\n\327\243p=\026@\366(\\\217\302\365\016@H\341z\024\256G\032@\270\036\205\353Q\270\"@\341z\024\256G\341\352?\270\036\205\353Q\270\016@H\341z\024\256\307)@\232\231\231\231\231\231\020@\303\365(\\\217\302\023@=\n\327\243p=\025@\037\205\353Q\270\036\032@{\024\256G\341z\002@H\341z\024\256G\024@\327\243p=\n\327\020@\232\231\231\231\231\231\017@\n\327\243p=\n\013@\327\243p=\n\327\030@\\\217\302\365(\\\025@\256G\341z\024\256\024@\354Q\270\036\205k/@\256G\341z\024\256\020@"
      }
    }
  }
}
node {
  name: "tensors/component_10"
  op: "Const"
  device: "/device:CPU:0"
  attr {
    key: "_output_shapes"
    value {
      list {
        shape {
          dim {
            size: 284
          }
        }
      }
    }
  }
  attr {
    key: "dtype"
    value {
      type: DT_DOUBLE
    }
  }
  attr {
    key: "value"
    value {
      tensor {
        dtype: DT_DOUBLE
        tensor_shape {
          dim {
            size: 284
          }
        }
        tensor_content: "ffffff\346?\256G\341z\024\256\347?\244p=\n\327\243\350?H\341z\024\256G\351?)\\\217\302\365(\354?\244p=\n\327\243\350?\244p=\n\327\243\350?\000\000\000\000\000\000\000\000\000\000\000\000\000\000\000\000\\\217\302\365(\\\347?\315\314\314\314\314\314\344?\217\302\365(\\\217\342?\341z\024\256G\341\352?\024\256G\341z\024\336?\037\205\353Q\270\036\345?\315\314\314\314\314\314\354?\217\302\365(\\\217\352?\256G\341z\024\256\347?\244p=\n\327\243\350?{\024\256G\341z\324?\327\243p=\n\327\343?\\\217\302\365(\\\337?\270\036\205\353Q\270\316?\024\256G\341z\024\336?\315\314\314\314\314\314\344?\000\000\000\000\000\000\320?\303\365(\\\217\302\355?\354Q\270\036\205\353\341?ffffff\346?\354Q\270\036\205\353\341?q=\n\327\243p\345?\024\256G\341z\024\346?\037\205\353Q\270\036\345?\000\000\000\000\000\000\350?\037\205\353Q\270\036\325?\341z\024\256G\341\342?R\270\036\205\353Q\340?H\341z\024\256G\351?\366(\\\217\302\365\340?\\\217\302\365(\\\337?\\\217\302\365(\\\347?=\n\327\243p=\352?\315\314\314\314\314\314\344?H\341z\024\256G\351?\315\314\314\314\314\314\344?R\270\036\205\353Q\350?\341z\024\256G\341\342?H\341z\024\256G\351?\315\314\314\314\314\314\344?{\024\256G\341z\344?\024\256G\341z\024\346?\037\205\353Q\270\036\325?\244p=\n\327\243\340?\327\243p=\n\327\343?=\n\327\243p=\332?\303\365(\\\217\302\355?\303\365(\\\217\302\345?)\\\217\302\365(\344?\217\302\365(\\\217\342?=\n\327\243p=\332?\037\205\353Q\270\036\325?\217\302\365(\\\217\342?\315\314\314\314\314\314\354?\205\353Q\270\036\205\343?\037\205\353Q\270\036\325?R\270\036\205\353Q\340?\256G\341z\024\256\347?{\024\256G\341z\354?\270\036\205\353Q\270\356?\217\302\365(\\\217\342?\000\000\000\000\000\000\000\000ffffff\346?\000\000\000\000\000\000\350?333333\343?\327\243p=\n\327\343?\000\000\000\000\000\000\000\000\000\000\000\000\000\000\000\000\037\205\353Q\270\036\345?\270\036\205\353Q\270\346?\244p=\n\327\243\350?\327\243p=\n\327\343?333333\353?\037\205\353Q\270\036\345?\366(\\\217\302\365\350?=\n\327\243p=\332?\232\231\231\231\231\231\341?\217\302\365(\\\217\352?{\024\256G\341z\354?\366(\\\217\302\365\340?R\270\036\205\353Q\340?\000\000\000\000\000\000\000\000q=\n\327\243p\345?\024\256G\341z\024\346?333333\323?\256G\341z\024\256\347?ffffff\346?\327\243p=\n\327\343?ffffff\346?\037\205\353Q\270\036\325?\024\256G\341z\024\346?\037\205\353Q\270\036\355?\354Q\270\036\205\353\321?\354Q\270\036\205\353\341?\037\205\353Q\270\036\345?\217\302\365(\\\217\342?ffffff\346?\366(\\\217\302\365\340?\354Q\270\036\205\353\341?\037\205\353Q\270\036\345?)\\\217\302\365(\344?\037\205\353Q\270\036\345?\\\217\302\365(\\\357?H\341z\024\256G\351?333333\343?333333\323?)\\\217\302\365(\344?\270\036\205\353Q\270\346?\\\217\302\365(\\\337?\000\000\000\000\000\000\000\000\244p=\n\327\243\350?q=\n\327\243p\345?=\n\327\243p=\362?\256G\341z\024\256\347?\341z\024\256G\341\352?\341z\024\256G\341\342?\366(\\\217\302\365\350?\303\365(\\\217\302\355?q=\n\327\243p\355?\256G\341z\024\256\347?\n\327\243p=\n\357?\303\365(\\\217\302\345?\270\036\205\353Q\270\316?q=\n\327\243p\345?R\270\036\205\353Q\360?\000\000\000\000\000\000\350?\000\000\000\000\000\000\000\000\217\302\365(\\\217\342?ffffff\346?\354Q\270\036\205\353\351?q=\n\327\243p\345?\354Q\270\036\205\353\341?R\270\036\205\353Q\310?\000\000\000\000\000\000\350?=\n\327\243p=\352?\024\256G\341z\024\356?\\\217\302\365(\\\337?ffffff\346?\256G\341z\024\256\347?)\\\217\302\365(\334?\341z\024\256G\341\342?\024\256G\341z\024\346?\366(\\\217\302\365\340?=\n\327\243p=\352?\303\365(\\\217\302\345?=\n\327\243p=\352?\327\243p=\n\327\343?\315\314\314\314\314\314\344?\232\231\231\231\231\231\341?\315\314\314\314\314\314\344?\217\302\365(\\\217\322?\256G\341z\024\256\347?\205\353Q\270\036\205\343?\244p=\n\327\243\340?R\270\036\205\353Q\350?\327\243p=\n\327\343?\303\365(\\\217\302\345?\303\365(\\\217\302\345?H\341z\024\256G\351?\256G\341z\024\256\347?R\270\036\205\353Q\350?\341z\024\256G\341\342?\315\314\314\314\314\314\344?H\341z\024\256G\341?\000\000\000\000\000\000\000\000\256G\341z\024\256\347?\037\205\353Q\270\036\325?\n\327\243p=\n\347?=\n\327\243p=\352?\n\327\243p=\n\357?R\270\036\205\353Q\330?\232\231\231\231\231\231\311?H\341z\024\256G\351?\270\036\205\353Q\270\346?\341z\024\256G\341\342?R\270\036\205\353Q\340?ffffff\346?\000\000\000\000\000\000\000\000\341z\024\256G\341\352?R\270\036\205\353Q\330?R\270\036\205\353Q\340?333333\343?\024\256G\341z\024\346?\354Q\270\036\205\353\321?\000\000\000\000\000\000\000\000q=\n\327\243p\355?\000\000\000\000\000\000\000\000\037\205\353Q\270\036\355?\000\000\000\000\000\000\000\000\232\231\231\231\231\231\341?\303\365(\\\217\302\345?\037\205\353Q\270\036\345?\270\036\205\353Q\270\346?\244p=\n\327\243\340?\315\314\314\314\314\314\344?\366(\\\217\302\365\350?\315\314\314\314\314\314\334?H\341z\024\256G\341?\205\353Q\270\036\205\353?)\\\217\302\365(\344?\024\256G\341z\024\346?H\341z\024\256G\341?)\\\217\302\365(\354?H\341z\024\256G\321?{\024\256G\341z\344?=\n\327\243p=\342?=\n\327\243p=\352?\303\365(\\\217\302\355?\315\314\314\314\314\314\344?\\\217\302\365(\\\357?{\024\256G\341z\354?\315\314\314\314\314\314\344?ffffff\356?)\\\217\302\365(\344?\327\243p=\n\327\323?R\270\036\205\353Q\350?\256G\341z\024\256\327?R\270\036\205\353Q\330?\217\302\365(\\\217\342?\232\231\231\231\231\231\331?\000\000\000\000\000\000\000\000ffffff\326?\000\000\000\000\000\000\000\000\327\243p=\n\327\353?\303\365(\\\217\302\355?H\341z\024\256G\321?R\270\036\205\353Q\340?\000\000\000\000\000\000\000\000\000\000\000\000\000\000\000\000q=\n\327\243p\355?\n\327\243p=\n\347?\341z\024\256G\341\342?q=\n\327\243p\335?)\\\217\302\365(\344?\270\036\205\353Q\270\356?\341z\024\256G\341\342?\\\217\302\365(\\\347?ffffff\346?\n\327\243p=\n\347?\354Q\270\036\205\353\351?q=\n\327\243p\345?\270\036\205\353Q\270\346?{\024\256G\341z\324?\\\217\302\365(\\\347?\244p=\n\327\243\320?R\270\036\205\353Q\340?\\\217\302\365(\\\347?\024\256G\341z\024\366?\205\353Q\270\036\205\343?333333\343?\354Q\270\036\205\353\341?\024\256G\341z\024\356?\256G\341z\024\256\347?\\\217\302\365(\\\337?ffffff\346?=\n\327\243p=\342?\256G\341z\024\256\347?\024\256G\341z\024\356?\\\217\302\365(\\\337?\354Q\270\036\205\353\341?\037\205\353Q\270\036\355?{\024\256G\341z\344?\037\205\353Q\270\036\345?q=\n\327\243p\345?\256G\341z\024\256\347?333333\323?\000\000\000\000\000\000\000\000\366(\\\217\302\365\330?\024\256G\341z\024\346?\232\231\231\231\231\231\341?{\024\256G\341z\344?\354Q\270\036\205\353\341?)\\\217\302\365(\344?\303\365(\\\217\302\355?{\024\256G\341z\344?"
      }
    }
  }
}
node {
  name: "tensors/component_11"
  op: "Const"
  device: "/device:CPU:0"
  attr {
    key: "_output_shapes"
    value {
      list {
        shape {
          dim {
            size: 284
          }
        }
      }
    }
  }
  attr {
    key: "dtype"
    value {
      type: DT_DOUBLE
    }
  }
  attr {
    key: "value"
    value {
      tensor {
        dtype: DT_DOUBLE
        tensor_shape {
          dim {
            size: 284
          }
        }
        tensor_content: "\270\036\205\353Q\270\346?H\341z\024\256G\351?\341z\024\256G\341\352?\341z\024\256G\341\352?\270\036\205\353Q\270\362?\354Q\270\036\205\353\351?=\n\327\243p=\352?q=\n\327\243p\315?\000\000\000\000\000\000\000\000H\341z\024\256G\351?\037\205\353Q\270\036\345?\315\314\314\314\314\314\344?\n\327\243p=\n\363?R\270\036\205\353Q\340?q=\n\327\243p\345?)\\\217\302\365(\360?ffffff\356?\037\205\353Q\270\036\355?)\\\217\302\365(\354?ffffff\326?)\\\217\302\365(\344?H\341z\024\256G\341?\354Q\270\036\205\353\321?\024\256G\341z\024\336?\037\205\353Q\270\036\345?\354Q\270\036\205\353\321?\000\000\000\000\000\000\360?\354Q\270\036\205\353\341?\270\036\205\353Q\270\346?=\n\327\243p=\342?q=\n\327\243p\345?\270\036\205\353Q\270\346?\000\000\000\000\000\000\350?\354Q\270\036\205\353\351?R\270\036\205\353Q\330?\315\314\314\314\314\314\344?\232\231\231\231\231\231\341?333333\353?\217\302\365(\\\217\342?\244p=\n\327\243\340?\315\314\314\314\314\314\354?\205\353Q\270\036\205\353?\n\327\243p=\n\347?333333\353?\315\314\314\314\314\314\344?\327\243p=\n\327\353?\341z\024\256G\341\342?=\n\327\243p=\362?\315\314\314\314\314\314\344?\303\365(\\\217\302\345?ffffff\346?\303\365(\\\217\302\325?\244p=\n\327\243\340?\327\243p=\n\327\343?\205\353Q\270\036\205\333?\024\256G\341z\024\356?\232\231\231\231\231\231\351?\315\314\314\314\314\314\354?)\\\217\302\365(\344?q=\n\327\243p\335?\256G\341z\024\256\327?\037\205\353Q\270\036\345?\\\217\302\365(\\\363?\315\314\314\314\314\314\344?\256G\341z\024\256\327?H\341z\024\256G\341?\000\000\000\000\000\000\350?R\270\036\205\353Q\364?333333\363?\341z\024\256G\341\342?\303\365(\\\217\302\305?\270\036\205\353Q\270\346?=\n\327\243p=\352?333333\343?\303\365(\\\217\302\345?\000\000\000\000\000\000\000\000\244p=\n\327\243\300?\\\217\302\365(\\\347?\\\217\302\365(\\\347?\354Q\270\036\205\353\351?\037\205\353Q\270\036\345?\315\314\314\314\314\314\354?R\270\036\205\353Q\350?=\n\327\243p=\362?\205\353Q\270\036\205\333?\232\231\231\231\231\231\341?333333\363?\n\327\243p=\n\357?\366(\\\217\302\365\340?\354Q\270\036\205\353\341?\341z\024\256G\341\312?\024\256G\341z\024\346?\256G\341z\024\256\347?\037\205\353Q\270\036\325?R\270\036\205\353Q\350?\366(\\\217\302\365\350?\024\256G\341z\024\346?ffffff\346?\256G\341z\024\256\327?R\270\036\205\353Q\350?)\\\217\302\365(\360?\217\302\365(\\\217\322?)\\\217\302\365(\344?\n\327\243p=\n\347?\341z\024\256G\341\342?\270\036\205\353Q\270\346?\366(\\\217\302\365\340?\341z\024\256G\341\342?ffffff\346?q=\n\327\243p\345?333333\353?H\341z\024\256G\361?\n\327\243p=\n\357?\037\205\353Q\270\036\345?\037\205\353Q\270\036\325?ffffff\346?\\\217\302\365(\\\347?\244p=\n\327\243\340?\000\000\000\000\000\000\000\000=\n\327\243p=\352?\256G\341z\024\256\347?=\n\327\243p=\362?\037\205\353Q\270\036\355?q=\n\327\243p\355?)\\\217\302\365(\344?{\024\256G\341z\354?\354Q\270\036\205\353\361?)\\\217\302\365(\360?\244p=\n\327\243\350?\037\205\353Q\270\036\361?\303\365(\\\217\302\345?H\341z\024\256G\321?ffffff\346?\341z\024\256G\341\362?=\n\327\243p=\352?\000\000\000\000\000\000\000\000\205\353Q\270\036\205\343?\256G\341z\024\256\347?\315\314\314\314\314\314\354?\270\036\205\353Q\270\346?\205\353Q\270\036\205\343?q=\n\327\243p\315?\315\314\314\314\314\314\354?)\\\217\302\365(\364?\232\231\231\231\231\231\361?\\\217\302\365(\\\337?\366(\\\217\302\365\350?333333\363?\024\256G\341z\024\336?{\024\256G\341z\344?ffffff\346?\217\302\365(\\\217\342?333333\353?\024\256G\341z\024\346?\037\205\353Q\270\036\355?\327\243p=\n\327\343?\315\314\314\314\314\314\344?\205\353Q\270\036\205\343?\315\314\314\314\314\314\344?\327\243p=\n\327\323?\366(\\\217\302\365\350?\205\353Q\270\036\205\343?\366(\\\217\302\365\340?\244p=\n\327\243\350?\303\365(\\\217\302\345?=\n\327\243p=\352?\366(\\\217\302\365\350?\217\302\365(\\\217\352?H\341z\024\256G\351?H\341z\024\256G\351?)\\\217\302\365(\344?\037\205\353Q\270\036\345?\217\302\365(\\\217\342?\000\000\000\000\000\000\000\000\366(\\\217\302\365\350?R\270\036\205\353Q\330?\000\000\000\000\000\000\350?q=\n\327\243p\355?333333\363?=\n\327\243p=\332?\232\231\231\231\231\231\311?=\n\327\243p=\352?\270\036\205\353Q\270\346?333333\343?H\341z\024\256G\341?\n\327\243p=\n\347?\366(\\\217\302\365\330?\037\205\353Q\270\036\355?\205\353Q\270\036\205\333?\232\231\231\231\231\231\341?\315\314\314\314\314\314\344?R\270\036\205\353Q\350?\217\302\365(\\\217\322?\000\000\000\000\000\000\000\000\\\217\302\365(\\\357?\n\327\243p=\n\327?\000\000\000\000\000\000\360?\000\000\000\000\000\000\000\000\354Q\270\036\205\353\341?\024\256G\341z\024\346?\037\205\353Q\270\036\345?\\\217\302\365(\\\347?\366(\\\217\302\365\340?\037\205\353Q\270\036\345?\232\231\231\231\231\231\351?\270\036\205\353Q\270\336?\341z\024\256G\341\342?\024\256G\341z\024\356?\037\205\353Q\270\036\345?R\270\036\205\353Q\350?H\341z\024\256G\341?R\270\036\205\353Q\360?H\341z\024\256G\321?\n\327\243p=\n\347?)\\\217\302\365(\344?\327\243p=\n\327\353?\315\314\314\314\314\314\360?\315\314\314\314\314\314\344?\\\217\302\365(\\\363?\\\217\302\365(\\\357?\037\205\353Q\270\036\345?\\\217\302\365(\\\357?\024\256G\341z\024\346?\037\205\353Q\270\036\325?\244p=\n\327\243\350?=\n\327\243p=\332?=\n\327\243p=\332?\341z\024\256G\341\342?\205\353Q\270\036\205\333?\000\000\000\000\000\000\000\000\366(\\\217\302\365\330?\327\243p=\n\327\323?\024\256G\341z\024\356?\n\327\243p=\n\357?\217\302\365(\\\217\322?R\270\036\205\353Q\340?\366(\\\217\302\365\330?\000\000\000\000\000\000\000\000\270\036\205\353Q\270\356?\232\231\231\231\231\231\351?\315\314\314\314\314\314\344?\244p=\n\327\243\340?)\\\217\302\365(\344?333333\363?\315\314\314\314\314\314\344?\256G\341z\024\256\347?\366(\\\217\302\365\350?\366(\\\217\302\365\350?\n\327\243p=\n\363?\256G\341z\024\256\347?\\\217\302\365(\\\347?\232\231\231\231\231\231\331?\000\000\000\000\000\000\350?H\341z\024\256G\321?\244p=\n\327\243\340?R\270\036\205\353Q\350?)\\\217\302\365(\370?\327\243p=\n\327\343?333333\343?\205\353Q\270\036\205\343?q=\n\327\243p\361?\315\314\314\314\314\314\354?\000\000\000\000\000\000\340?\244p=\n\327\243\350?\244p=\n\327\243\350?H\341z\024\256G\351?\366(\\\217\302\365\360?\\\217\302\365(\\\337?=\n\327\243p=\342?ffffff\356?{\024\256G\341z\344?ffffff\346?q=\n\327\243p\345?\000\000\000\000\000\000\350?\n\327\243p=\n\327?\000\000\000\000\000\000\000\000\341z\024\256G\341\332?\244p=\n\327\243\350?=\n\327\243p=\342?\n\327\243p=\n\347?\341z\024\256G\341\342?\037\205\353Q\270\036\345?\000\000\000\000\000\000\360?{\024\256G\341z\344?"
      }
    }
  }
}
node {
  name: "tensors/component_12"
  op: "Const"
  device: "/device:CPU:0"
  attr {
    key: "_output_shapes"
    value {
      list {
        shape {
          dim {
            size: 284
          }
        }
      }
    }
  }
  attr {
    key: "dtype"
    value {
      type: DT_DOUBLE
    }
  }
  attr {
    key: "value"
    value {
      tensor {
        dtype: DT_DOUBLE
        tensor_shape {
          dim {
            size: 284
          }
        }
        tensor_content: "\037\205\353Q\270\036\345?H\341z\024\256G\351?\341z\024\256G\341\352?\341z\024\256G\341\352?\270\036\205\353Q\270\362?\232\231\231\231\231\231\351?\354Q\270\036\205\353\351?\000\000\000\000\000\000\000\000\000\000\000\000\000\000\000\000H\341z\024\256G\351?)\\\217\302\365(\344?\315\314\314\314\314\314\344?\n\327\243p=\n\363?R\270\036\205\353Q\340?333333\343?)\\\217\302\365(\360?ffffff\356?\037\205\353Q\270\036\355?)\\\217\302\365(\354?\303\365(\\\217\302\325?\341z\024\256G\341\342?H\341z\024\256G\341?\000\000\000\000\000\000\000\000)\\\217\302\365(\334?\327\243p=\n\327\343?\000\000\000\000\000\000\000\000\000\000\000\000\000\000\360?R\270\036\205\353Q\330?q=\n\327\243p\345?\256G\341z\024\256\327?\327\243p=\n\327\343?q=\n\327\243p\345?\000\000\000\000\000\000\350?H\341z\024\256G\351?R\270\036\205\353Q\330?\315\314\314\314\314\314\344?\232\231\231\231\231\231\341?333333\353?\217\302\365(\\\217\342?\244p=\n\327\243\340?\315\314\314\314\314\314\354?333333\353?\n\327\243p=\n\347?333333\353?\341z\024\256G\341\342?\327\243p=\n\327\353?\000\000\000\000\000\000\340?=\n\327\243p=\362?\341z\024\256G\341\342?\303\365(\\\217\302\345?\315\314\314\314\314\314\344?\037\205\353Q\270\036\325?\315\314\314\314\314\314\334?=\n\327\243p=\342?\341z\024\256G\341\332?\327\243p=\n\327\353?\232\231\231\231\231\231\351?\315\314\314\314\314\314\354?)\\\217\302\365(\344?q=\n\327\243p\335?\256G\341z\024\256\327?\037\205\353Q\270\036\345?\\\217\302\365(\\\363?\315\314\314\314\314\314\344?\256G\341z\024\256\327?H\341z\024\256G\341?\n\327\243p=\n\347?R\270\036\205\353Q\364?333333\363?ffffff\326?\303\365(\\\217\302\305?\024\256G\341z\024\346?=\n\327\243p=\352?R\270\036\205\353Q\340?\303\365(\\\217\302\345?\000\000\000\000\000\000\000\000\244p=\n\327\243\300?\\\217\302\365(\\\347?\024\256G\341z\024\346?\354Q\270\036\205\353\351?\315\314\314\314\314\314\344?)\\\217\302\365(\354?\000\000\000\000\000\000\350?=\n\327\243p=\362?\341z\024\256G\341\332?\366(\\\217\302\365\330?\n\327\243p=\n\363?\n\327\243p=\n\357?)\\\217\302\365(\334?\354Q\270\036\205\353\341?\000\000\000\000\000\000\000\000\024\256G\341z\024\346?\256G\341z\024\256\347?\037\205\353Q\270\036\325?\\\217\302\365(\\\347?\366(\\\217\302\365\350?\024\256G\341z\024\346?\315\314\314\314\314\314\344?\256G\341z\024\256\327?R\270\036\205\353Q\350?)\\\217\302\365(\360?\244p=\n\327\243\320?)\\\217\302\365(\344?\n\327\243p=\n\347?\000\000\000\000\000\000\340?\037\205\353Q\270\036\345?)\\\217\302\365(\334?\341z\024\256G\341\342?\303\365(\\\217\302\345?q=\n\327\243p\345?333333\353?H\341z\024\256G\361?\n\327\243p=\n\357?\037\205\353Q\270\036\345?\037\205\353Q\270\036\325?ffffff\346?ffffff\346?\232\231\231\231\231\231\311?\000\000\000\000\000\000\000\000\354Q\270\036\205\353\351?\256G\341z\024\256\347?\256G\341z\024\256\357?\315\314\314\314\314\314\354?q=\n\327\243p\355?)\\\217\302\365(\344?{\024\256G\341z\354?\354Q\270\036\205\353\361?)\\\217\302\365(\360?\256G\341z\024\256\347?\037\205\353Q\270\036\361?)\\\217\302\365(\344?\000\000\000\000\000\000\000\000q=\n\327\243p\345?\341z\024\256G\341\362?=\n\327\243p=\352?\000\000\000\000\000\000\000\000333333\343?\\\217\302\365(\\\347?\315\314\314\314\314\314\354?\270\036\205\353Q\270\346?\205\353Q\270\036\205\343?q=\n\327\243p\315?\315\314\314\314\314\314\354?)\\\217\302\365(\364?\232\231\231\231\231\231\361?ffffff\326?\366(\\\217\302\365\350?333333\363?q=\n\327\243p\335?{\024\256G\341z\344?\037\205\353Q\270\036\345?\217\302\365(\\\217\342?\217\302\365(\\\217\352?\315\314\314\314\314\314\344?\037\205\353Q\270\036\355?=\n\327\243p=\342?\217\302\365(\\\217\342?\205\353Q\270\036\205\343?333333\343?\327\243p=\n\327\323?\000\000\000\000\000\000\350?\244p=\n\327\243\340?333333\323?\000\000\000\000\000\000\350?\303\365(\\\217\302\345?=\n\327\243p=\352?\366(\\\217\302\365\350?=\n\327\243p=\352?\244p=\n\327\243\350?\366(\\\217\302\365\350?)\\\217\302\365(\344?\341z\024\256G\341\342?=\n\327\243p=\342?\000\000\000\000\000\000\000\000\000\000\000\000\000\000\350?R\270\036\205\353Q\330?\n\327\243p=\n\347?q=\n\327\243p\355?333333\363?=\n\327\243p=\332?\303\365(\\\217\302\305?\232\231\231\231\231\231\351?q=\n\327\243p\345?\232\231\231\231\231\231\341?H\341z\024\256G\341?\303\365(\\\217\302\345?\000\000\000\000\000\000\000\000\037\205\353Q\270\036\355?\205\353Q\270\036\205\333?\232\231\231\231\231\231\341?\315\314\314\314\314\314\344?R\270\036\205\353Q\350?\217\302\365(\\\217\322?\000\000\000\000\000\000\000\000\\\217\302\365(\\\357?\n\327\243p=\n\327?\256G\341z\024\256\357?\000\000\000\000\000\000\000\000\000\000\000\000\000\000\340?\315\314\314\314\314\314\344?\205\353Q\270\036\205\343?\024\256G\341z\024\346?\n\327\243p=\n\327?\327\243p=\n\327\343?\244p=\n\327\243\350?\270\036\205\353Q\270\336?\341z\024\256G\341\342?\024\256G\341z\024\356?\315\314\314\314\314\314\344?R\270\036\205\353Q\350?R\270\036\205\353Q\330?R\270\036\205\353Q\360?\232\231\231\231\231\231\311?\n\327\243p=\n\347?)\\\217\302\365(\344?\205\353Q\270\036\205\353?\315\314\314\314\314\314\360?\341z\024\256G\341\342?\\\217\302\365(\\\363?\\\217\302\365(\\\357?)\\\217\302\365(\344?ffffff\356?\024\256G\341z\024\346?\037\205\353Q\270\036\325?\000\000\000\000\000\000\350?=\n\327\243p=\332?=\n\327\243p=\332?ffffff\326?\205\353Q\270\036\205\333?\000\000\000\000\000\000\000\000\366(\\\217\302\365\330?\327\243p=\n\327\323?\024\256G\341z\024\356?\270\036\205\353Q\270\356?\217\302\365(\\\217\322?=\n\327\243p=\332?\366(\\\217\302\365\330?\000\000\000\000\000\000\000\000\024\256G\341z\024\356?\232\231\231\231\231\231\351?\315\314\314\314\314\314\344?\244p=\n\327\243\340?\354Q\270\036\205\353\341?333333\363?\315\314\314\314\314\314\344?ffffff\346?\366(\\\217\302\365\350?\244p=\n\327\243\350?\n\327\243p=\n\363?\256G\341z\024\256\347?ffffff\346?\232\231\231\231\231\231\331?\000\000\000\000\000\000\350?\244p=\n\327\243\320?R\270\036\205\353Q\330?\\\217\302\365(\\\347?)\\\217\302\365(\370?\327\243p=\n\327\343?R\270\036\205\353Q\340?\205\353Q\270\036\205\343?q=\n\327\243p\361?\315\314\314\314\314\314\354?\000\000\000\000\000\000\340?\244p=\n\327\243\350?\244p=\n\327\243\350?R\270\036\205\353Q\350?\366(\\\217\302\365\360?ffffff\326?\244p=\n\327\243\340?\024\256G\341z\024\356?\217\302\365(\\\217\342?ffffff\346?\327\243p=\n\327\343?\n\327\243p=\n\347?\n\327\243p=\n\327?\000\000\000\000\000\000\000\000\232\231\231\231\231\231\331?\244p=\n\327\243\350?ffffff\326?\n\327\243p=\n\347?\341z\024\256G\341\342?\315\314\314\314\314\314\344?\000\000\000\000\000\000\360?=\n\327\243p=\342?"
      }
    }
  }
}
node {
  name: "tensors/component_13"
  op: "Const"
  device: "/device:CPU:0"
  attr {
    key: "_output_shapes"
    value {
      list {
        shape {
          dim {
            size: 284
          }
        }
      }
    }
  }
  attr {
    key: "dtype"
    value {
      type: DT_DOUBLE
    }
  }
  attr {
    key: "value"
    value {
      tensor {
        dtype: DT_DOUBLE
        tensor_shape {
          dim {
            size: 284
          }
        }
